<pad>	0
<s>	0
</s>	0
<unk>	0
▁t	-0
▁a	-1
▁th	-2
in	-3
ou	-4
re	-5
▁the	-6
▁w	-7
▁s	-8
▁o	-9
▁to	-10
▁y	-11
▁you	-12
▁i	-13
ing	-14
nd	-15
at	-16
▁b	-17
er	-18
▁c	-19
▁h	-20
▁g	-21
▁d	-22
▁p	-23
▁"	-24
▁f	-25
▁and	-26
ll	-27
▁l	-28
▁m	-29
."	-30
an	-31
it	-32
▁go	-33
es	-34
on	-35
▁of	-36
en	-37
▁it	-38
or	-39
▁that	-40
us	-41
▁in	-42
is	-43
ow	-44
ar	-45
le	-46
▁is	-47
ve	-48
▁I	-49
om	-50
ke	-51
▁n	-52
▁ha	-53
et	-54
▁on	-55
ic	-56
▁your	-57
ot	-58
▁be	-59
▁wh	-60
▁going	-61
▁we	-62
ay	-63
ed	-64
ac	-65
▁e	-66
all	-67
as	-68
▁st	-69
gh	-70
ut	-71
▁do	-72
▁this	-73
▁re	-74
out	-75
ant	-76
ere	-77
al	-78
ver	-79
Th	-80
▁j	-81
▁have	-82
▁r	-83
▁can	-84
ith	-85
igh	-86
ust	-87
▁with	-88
▁are	-89
id	-90
ir	-91
ight	-92
▁for	-93
ake	-94
▁u	-95
se	-96
ion	-97
▁want	-98
oo	-99
ally	-100
▁just	-101
ly	-102
ld	-103
So	-104
ch	-105
use	-106
▁k	-107
st	-108
▁li	-109
▁or	-110
ad	-111
ec	-112
ent	-113
▁an	-114
ome	-115
▁so	-116
im	-117
▁sh	-118
ee	-119
▁Th	-120
ro	-121
▁up	-122
am	-123
▁mo	-124
And	-125
▁ab	-126
itt	-127
▁like	-128
▁get	-129
▁as	-130
ure	-131
ill	-132
ack	-133
▁ne	-134
▁out	-135
▁what	-136
th	-137
il	-138
ra	-139
▁he	-140
▁one	-141
od	-142
▁if	-143
▁litt	-144
art	-145
You	-146
▁little	-147
very	-148
ce	-149
our	-150
▁they	-151
▁not	-152
▁there	-153
▁al	-154
▁at	-155
▁make	-156
ur	-157
ain	-158
▁then	-159
ep	-160
ind	-161
▁le	-162
▁about	-163
ct	-164
ard	-165
ould	-166
▁ch	-167
▁fr	-168
▁all	-169
ter	-170
ook	-171
rou	-172
ide	-173
ip	-174
▁here	-175
▁some	-176
ff	-177
own	-178
op	-179
▁com	-180
▁don	-181
ice	-182
ol	-183
ause	-184
▁pl	-185
▁will	-186
▁use	-187
qu	-188
▁sp	-189
▁back	-190
▁kn	-191
▁how	-192
ge	-193
ers	-194
▁right	-195
▁thing	-196
ul	-197
ick	-198
▁di	-199
▁cl	-200
▁my	-201
ak	-202
▁put	-203
▁way	-204
▁down	-205
▁them	-206
▁really	-207
▁but	-208
▁when	-209
▁bec	-210
ive	-211
▁very	-212
Now	-213
▁int	-214
nt	-215
▁ex	-216
▁look	-217
ap	-218
ort	-219
▁So	-220
▁tr	-221
ab	-222
▁need	-223
um	-224
▁pro	-225
▁because	-226
▁from	-227
▁me	-228
▁You	-229
▁more	-230
We	-231
ine	-232
▁te	-233
▁tw	-234
▁And	-235
ate	-236
▁take	-237
un	-238
▁any	-239
▁pre	-240
▁A	-241
ame	-242
▁our	-243
▁con	-244
ss	-245
▁po	-246
▁us	-247
▁tim	-248
eth	-249
▁wor	-250
▁bit	-251
ess	-252
ually	-253
▁sure	-254
▁S	-255
ect	-256
ist	-257
▁off	-258
▁good	-259
▁see	-260
▁into	-261
est	-262
pp	-263
oth	-264
▁over	-265
so	-266
ace	-267
ast	-268
▁ke	-269
▁se	-270
ation	-271
▁start	-272
ore	-273
▁The	-274
▁diff	-275
▁know	-276
▁fl	-277
▁lot	-278
ther	-279
▁act	-280
▁two	-281
ich	-282
ose	-283
▁It	-284
ig	-285
▁hand	-286
▁de	-287
▁kind	-288
▁co	-289
irst	-290
round	-291
ven	-292
▁B	-293
ft	-294
ater	-295
▁would	-296
▁keep	-297
and	-298
▁differe	-299
eel	-300
▁time	-301
▁where	-302
Wh	-303
gain	-304
▁also	-305
▁these	-306
ass	-307
▁other	-308
ree	-309
way	-310
▁fo	-311
ach	-312
▁im	-313
▁nice	-314
▁br	-315
reat	-316
▁which	-317
ting	-318
alk	-319
ull	-320
▁work	-321
uch	-322
act	-323
▁actually	-324
▁bl	-325
▁ball	-326
▁things	-327
▁dr	-328
▁bas	-329
▁has	-330
▁O	-331
▁pe	-332
ite	-333
▁ad	-334
ment	-335
▁different	-336
ong	-337
▁qu	-338
▁part	-339
▁side	-340
▁som	-341
▁M	-342
▁let	-343
▁first	-344
el	-345
▁got	-346
▁now	-347
▁their	-348
▁come	-349
ple	-350
▁We	-351
ople	-352
▁v	-353
age	-354
one	-355
▁sm	-356
he	-357
xt	-358
yp	-359
ble	-360
rough	-361
▁again	-362
lf	-363
The	-364
If	-365
em	-366
▁top	-367
▁around	-368
▁people	-369
▁ro	-370
ward	-371
▁through	-372
▁bo	-373
▁gl	-374
▁hair	-375
▁much	-376
▁every	-377
ody	-378
nder	-379
ber	-380
▁en	-381
▁hel	-382
▁her	-383
ink	-384
▁sl	-385
▁help	-386
ag	-387
▁C	-388
per	-389
▁by	-390
▁pr	-391
▁This	-392
ck	-393
ub	-394
▁fe	-395
ne	-396
ood	-397
▁sc	-398
are	-399
ire	-400
▁show	-401
▁talk	-402
▁water	-403
ish	-404
les	-405
▁col	-406
▁imp	-407
▁H	-408
▁say	-409
int	-410
ue	-411
▁may	-412
▁typ	-413
ition	-414
ething	-415
▁three	-416
▁does	-417
▁cut	-418
▁color	-419
ail	-420
▁ho	-421
ving	-422
▁even	-423
▁should	-424
▁something	-425
iz	-426
ies	-427
urn	-428
able	-429
▁step	-430
ie	-431
▁bu	-432
ty	-433
▁G	-434
▁using	-435
os	-436
▁call	-437
ush	-438
▁try	-439
▁was	-440
▁most	-441
▁sk	-442
▁cont	-443
▁1	-444
ves	-445
aking	-446
▁add	-447
▁same	-448
▁those	-449
▁T	-450
▁feel	-451
▁well	-452
ous	-453
ance	-454
▁Now	-455
▁doing	-456
▁su	-457
ways	-458
▁who	-459
▁next	-460
▁under	-461
▁D	-462
ath	-463
▁ar	-464
side	-465
▁cle	-466
▁head	-467
if	-468
ens	-469
▁am	-470
▁gr	-471
head	-472
thing	-473
▁pull	-474
▁than	-475
▁always	-476
▁import	-477
og	-478
▁L	-479
▁ac	-480
▁bet	-481
▁might	-482
ry	-483
ady	-484
end	-485
▁sa	-486
▁set	-487
▁find	-488
▁give	-489
▁important	-490
ile	-491
kay	-492
▁sw	-493
▁eas	-494
▁comp	-495
▁J	-496
▁pi	-497
akes	-498
fore	-499
▁str	-500
ether	-501
other	-502
▁stra	-503
It	-504
ions	-505
ough	-506
▁That	-507
?"	-508
be	-509
ase	-510
ott	-511
▁dra	-512
▁leg	-513
▁turn	-514
▁ahead	-515
▁P	-516
ity	-517
atch	-518
▁man	-519
▁long	-520
▁R	-521
▁car	-522
▁body	-523
▁think	-524
▁too	-525
▁piec	-526
▁F	-527
nce	-528
▁ey	-529
▁foot	-530
▁left	-531
▁play	-532
ically	-533
▁light	-534
▁before	-535
ily	-536
row	-537
▁no	-538
ever	-539
ket	-540
▁lo	-541
ound	-542
▁per	-543
erson	-544
▁hold	-545
▁move	-546
ps	-547
ans	-548
▁gu	-549
▁oil	-550
▁rem	-551
▁able	-552
▁place	-553
▁point	-554
▁person	-555
▁N	-556
But	-557
▁wa	-558
This	-559
What	-560
▁bott	-561
▁great	-562
ular	-563
atter	-564
▁line	-565
▁could	-566
tty	-567
▁sim	-568
▁press	-569
ade	-570
▁op	-571
▁app	-572
ud	-573
▁E	-574
ner	-575
orm	-576
▁big	-577
▁day	-578
▁dog	-579
▁done	-580
▁draw	-581
▁There	-582
▁doesn	-583
▁pretty	-584
day	-585
vel	-586
▁""	-587
▁low	-588
▁tog	-589
▁four	-590
▁type	-591
▁together	-592
▁his	-593
vi	-594
ated	-595
ning	-596
▁def	-597
▁pos	-598
..	-599
ild	-600
▁end	-601
▁min	-602
▁each	-603
▁skin	-604
▁clean	-605
▁forward	-606
du	-607
der	-608
eep	-609
ial	-610
ips	-611
ked	-612
▁wr	-613
self	-614
▁bre	-615
ating	-616
▁once	-617
▁tell	-618
ix	-619
eck	-620
▁el	-621
ress	-622
▁ear	-623
▁ext	-624
▁she	-625
▁high	-626
▁glass	-627
""	-628
ise	-629
ors	-630
▁af	-631
ount	-632
▁bottom	-633
▁straight	-634
een	-635
ond	-636
ont	-637
rap	-638
When	-639
aper	-640
cess	-641
▁cre	-642
▁run	-643
▁pain	-644
ib	-645
air	-646
ock	-647
▁ve	-648
ouch	-649
▁sec	-650
▁squ	-651
▁best	-652
▁only	-653
▁another	-654
▁did	-655
▁area	-656
▁goes	-657
▁small	-658
▁called	-659
▁position	-660
ell	-661
ier	-662
▁ph	-663
itch	-664
▁But	-665
▁ser	-666
▁hard	-667
▁kick	-668
▁front	-669
▁maybe	-670
▁today	-671
▁inside	-672
lic	-673
▁ed	-674
▁feet	-675
▁lear	-676
▁open	-677
▁piece	-678
▁throw	-679
▁touch	-680
In	-681
av	-682
▁K	-683
▁cr	-684
▁dis	-685
▁gra	-686
▁him	-687
▁away	-688
▁clip	-689
▁comes	-690
ese	-691
ult	-692
imes	-693
▁res	-694
▁made	-695
▁name	-696
▁hands	-697
ms	-698
ark	-699
ear	-700
ger	-701
get	-702
ool	-703
ove	-704
▁ob	-705
ings	-706
rect	-707
tain	-708
▁cor	-709
▁dec	-710
▁dry	-711
▁had	-712
▁smo	-713
▁cour	-714
▁face	-715
etimes	-716
▁bring	-717
▁makes	-718
▁paper	-719
▁quick	-720
ash	-721
ize	-722
▁If	-723
▁St	-724
ange	-725
ient	-726
▁rep	-727
▁after	-728
▁getting	-729
--	-730
up	-731
▁2	-732
iss	-733
ope	-734
str	-735
ably	-736
ible	-737
▁hit	-738
▁its	-739
▁num	-740
▁stre	-741
ful	-742
ign	-743
ump	-744
fort	-745
ical	-746
▁att	-747
▁spe	-748
enter	-749
▁been	-750
▁happ	-751
▁times	-752
▁working	-753
▁anything	-754
uff	-755
body	-756
▁eye	-757
▁fun	-758
▁lay	-759
bably	-760
vious	-761
▁many	-762
▁shot	-763
▁slow	-764
▁stand	-765
▁looking	-766
▁whatever	-767
mon	-768
ence	-769
▁loo	-770
ember	-771
▁care	-772
▁roll	-773
▁room	-774
▁used	-775
▁plant	-776
▁stick	-777
▁still	-778
▁coming	-779
▁enough	-780
ird	-781
duct	-782
▁buy	-783
▁exp	-784
▁fin	-785
wards	-786
▁They	-787
▁easy	-788
▁fish	-789
▁being	-790
▁board	-791
▁learn	-792
▁direct	-793
▁probably	-794
▁everything	-795
ob	-796
▁z	-797
arm	-798
red	-799
▁bag	-800
▁few	-801
▁lea	-802
▁rel	-803
▁tra	-804
▁What	-805
▁half	-806
▁were	-807
▁brush	-808
▁pract	-809
▁ready	-810
▁better	-811
▁course	-812
ank	-813
cus	-814
rop	-815
ween	-816
▁card	-817
▁fing	-818
▁inch	-819
▁lift	-820
▁second	-821
fortable	-822
▁between	-823
▁usually	-824
Hi	-825
wn	-826
als	-827
anc	-828
ape	-829
dle	-830
ost	-831
▁ir	-832
▁sn	-833
▁un	-834
unch	-835
▁old	-836
▁minut	-837
▁store	-838
▁proper	-839
▁someone	-840
ze	-841
ary	-842
ict	-843
iqu	-844
▁id	-845
ense	-846
ross	-847
vent	-848
▁cou	-849
▁cur	-850
▁inf	-851
▁lar	-852
▁rec	-853
There	-854
ative	-855
ially	-856
ments	-857
ready	-858
▁base	-859
▁exam	-860
▁push	-861
▁real	-862
ations	-863
▁colors	-864
▁already	-865
▁talking	-866
▁comfortable	-867
ax	-868
	-869
▁W	-870
chn	-871
gth	-872
ows	-873
▁In	-874
▁gi	-875
They	-876
ling	-877
▁hor	-878
▁ind	-879
▁mot	-880
▁new	-881
▁pin	-882
▁sit	-883
ffect	-884
right	-885
▁grab	-886
▁legs	-887
▁paint	-888
▁while	-889
viously	-890
▁yourself	-891
▁basically	-892
Al	-893
▁3	-894
oor	-895
umb	-896
▁es	-897
raph	-898
▁far	-899
▁tea	-900
asure	-901
neath	-902
▁both	-903
▁flat	-904
▁pick	-905
▁stay	-906
▁wood	-907
itting	-908
▁close	-909
▁center	-910
▁making	-911
▁product	-912
▁practice	-913
▁underneath	-914
wh	-915
ale	-916
ats	-917
cle	-918
gin	-919
lect	-920
ness	-921
ping	-922
▁air	-923
▁guy	-924
▁sur	-925
▁jump	-926
▁perf	-927
▁sort	-928
▁tool	-929
▁wire	-930
▁basic	-931
▁having	-932
▁number	-933
▁without	-934
▁pressure	-935
oy	-936
ang	-937
ike	-938
▁An	-939
▁ra	-940
ides	-941
ject	-942
▁bel	-943
▁cer	-944
▁mid	-945
▁pot	-946
▁reg	-947
▁dist	-948
▁full	-949
▁hook	-950
▁rest	-951
▁supp	-952
▁warm	-953
▁ways	-954
▁break	-955
▁build	-956
▁cover	-957
▁horse	-958
▁thick	-959
▁create	-960
▁ground	-961
▁measure	-962
pt	-963
te	-964
uck	-965
eter	-966
ines	-967
▁arm	-968
▁dep	-969
▁des	-970
▁esp	-971
▁fil	-972
▁gre	-973
▁sho	-974
▁unt	-975
▁choo	-976
▁five	-977
▁iron	-978
▁last	-979
▁mean	-980
▁sand	-981
▁spec	-982
ograph	-983
▁begin	-984
▁looks	-985
▁lower	-986
▁means	-987
▁order	-988
▁types	-989
▁comple	-990
▁sometimes	-991
ea	-992
▁4	-993
ari	-994
tch	-995
▁sy	-996
Once	-997
ason	-998
atur	-999
▁mus	-1000
▁pop	-1001
▁ten	-1002
▁why	-1003
▁else	-1004
▁okay	-1005
▁wear	-1006
ection	-1007
icular	-1008
▁breat	-1009
▁techn	-1010
▁remove	-1011
▁trying	-1012
▁example	-1013
▁stretch	-1014
▁towards	-1015
ef	-1016
▁5	-1017
▁U	-1018
ars	-1019
col	-1020
erc	-1021
ord	-1022
ric	-1023
▁Hi	-1024
ates	-1025
icle	-1026
▁gar	-1027
▁kne	-1028
▁own	-1029
▁tip	-1030
▁won	-1031
Again	-1032
▁book	-1033
▁comb	-1034
▁cons	-1035
▁game	-1036
▁home	-1037
▁pass	-1038
▁prot	-1039
▁size	-1040
▁walk	-1041
ention	-1042
▁defin	-1043
▁level	-1044
▁until	-1045
▁white	-1046
▁couple	-1047
▁moving	-1048
▁certain	-1049
▁remember	-1050
As	-1051
bs	-1052
ri	-1053
One	-1054
irt	-1055
its	-1056
ply	-1057
yle	-1058
▁10	-1059
Then	-1060
ball	-1061
bing	-1062
most	-1063
osed	-1064
▁ang	-1065
▁cap	-1066
▁cir	-1067
▁hot	-1068
▁pow	-1069
▁veh	-1070
▁wax	-1071
acing	-1072
arden	-1073
astic	-1074
ature	-1075
▁Okay	-1076
▁case	-1077
▁club	-1078
▁gets	-1079
▁nail	-1080
ecause	-1081
▁cause	-1082
▁short	-1083
▁whole	-1084
ecially	-1085
▁across	-1086
▁finish	-1087
▁minutes	-1088
▁obviously	-1089
au	-1090
gg	-1091
ts	-1092
For	-1093
ges	-1094
ider	-1095
ters	-1096
▁box	-1097
▁key	-1098
▁mas	-1099
▁mix	-1100
▁pur	-1101
▁spr	-1102
▁Good	-1103
▁deep	-1104
▁edge	-1105
▁form	-1106
▁free	-1107
▁hole	-1108
▁year	-1109
▁creat	-1110
▁amount	-1111
▁effect	-1112
▁middle	-1113
▁proble	-1114
▁taking	-1115
▁techniqu	-1116
ia	-1117
to	-1118
ces	-1119
ift	-1120
mer	-1121
res	-1122
ved	-1123
▁As	-1124
▁My	-1125
Okay	-1126
avor	-1127
ents	-1128
ince	-1129
outh	-1130
read	-1131
▁acc	-1132
▁che	-1133
▁fit	-1134
▁six	-1135
▁win	-1136
ength	-1137
ither	-1138
where	-1139
▁Then	-1140
▁char	-1141
▁comm	-1142
▁cond	-1143
▁doll	-1144
▁flow	-1145
▁mass	-1146
▁neck	-1147
▁norm	-1148
▁said	-1149
▁tail	-1150
▁along	-1151
▁black	-1152
▁block	-1153
▁exerc	-1154
▁natur	-1155
▁quite	-1156
▁sides	-1157
▁twist	-1158
▁change	-1159
▁garden	-1160
▁simple	-1161
▁simply	-1162
▁smooth	-1163
▁weight	-1164
▁vehicle	-1165
▁particular	-1166
▁8	-1167
...	-1168
ety	-1169
kes	-1170
ork	-1171
ten	-1172
ton	-1173
▁av	-1174
▁je	-1175
▁ju	-1176
oday	-1177
omer	-1178
ouse	-1179
▁ask	-1180
▁ble	-1181
▁cho	-1182
▁fam	-1183
▁lip	-1184
▁opp	-1185
▁rub	-1186
▁saf	-1187
▁sal	-1188
▁seg	-1189
▁bird	-1190
▁cast	-1191
▁eyes	-1192
▁glue	-1193
▁jack	-1194
▁phot	-1195
▁pict	-1196
▁poss	-1197
▁surf	-1198
▁wind	-1199
ending	-1200
▁apply	-1201
▁child	-1202
▁floor	-1203
▁focus	-1204
▁treat	-1205
▁wheel	-1206
▁design	-1207
▁pieces	-1208
▁reason	-1209
▁slowly	-1210
▁string	-1211
▁switch	-1212
▁outside	-1213
▁picture	-1214
▁definite	-1215
▁shoulders	-1216
▁especially	-1217
iv	-1218
cer	-1219
omm	-1220
rew	-1221
▁Ch	-1222
aste	-1223
▁One	-1224
▁cam	-1225
▁cup	-1226
▁ele	-1227
▁hip	-1228
▁kid	-1229
▁mil	-1230
▁red	-1231
▁sub	-1232
▁ter	-1233
▁cust	-1234
▁fall	-1235
▁fast	-1236
▁fold	-1237
▁heat	-1238
▁inst	-1239
▁knee	-1240
▁onto	-1241
▁rope	-1242
▁sing	-1243
▁vari	-1244
▁wash	-1245
▁These	-1246
▁class	-1247
▁exact	-1248
▁knees	-1249
▁later	-1250
▁never	-1251
▁almost	-1252
▁choose	-1253
▁contin	-1254
▁either	-1255
▁finger	-1256
▁length	-1257
▁regular	-1258
▁starting	-1259
▁definitely	-1260
pl	-1261
any	-1262
ics	-1263
irl	-1264
ren	-1265
wel	-1266
aces	-1267
cles	-1268
ener	-1269
llow	-1270
tern	-1271
▁Let	-1272
▁ben	-1273
▁bra	-1274
▁cal	-1275
▁elb	-1276
▁loc	-1277
▁mar	-1278
▁med	-1279
▁ref	-1280
ather	-1281
erest	-1282
lease	-1283
▁bend	-1284
▁clim	-1285
▁coat	-1286
▁conf	-1287
▁deal	-1288
▁grou	-1289
▁spin	-1290
▁wine	-1291
▁clear	-1292
▁cloth	-1293
▁found	-1294
▁large	-1295
▁space	-1296
▁stuff	-1297
▁takes	-1298
▁tooth	-1299
▁trick	-1300
▁veget	-1301
▁watch	-1302
▁breath	-1303
▁contro	-1304
▁longer	-1305
▁keeping	-1306
▁natural	-1307
▁exercise	-1308
▁shoulder	-1309
He	-1310
co	-1311
dr	-1312
ug	-1313
▁V	-1314
ons	-1315
ute	-1316
ages	-1317
ator	-1318
stem	-1319
ully	-1320
▁All	-1321
▁adv	-1322
▁art	-1323
▁inc	-1324
▁ins	-1325
▁job	-1326
▁rid	-1327
▁sun	-1328
acter	-1329
anket	-1330
ience	-1331
ility	-1332
ional	-1333
ouble	-1334
▁coll	-1335
▁door	-1336
▁drop	-1337
▁fact	-1338
▁fine	-1339
▁food	-1340
▁main	-1341
▁post	-1342
▁such	-1343
▁thin	-1344
attern	-1345
▁allow	-1346
▁catch	-1347
▁check	-1348
▁chest	-1349
▁extra	-1350
▁helps	-1351
▁house	-1352
▁least	-1353
▁lines	-1354
▁mouth	-1355
▁quest	-1356
▁relax	-1357
▁score	-1358
▁style	-1359
▁swing	-1360
▁track	-1361
▁train	-1362
▁become	-1363
▁easier	-1364
▁matter	-1365
▁notice	-1366
▁series	-1367
▁system	-1368
▁blanket	-1369
▁pattern	-1370
▁perfect	-1371
▁putting	-1372
▁segment	-1373
▁interest	-1374
▁condition	-1375
bo	-1376
cy	-1377
gr	-1378
uc	-1379
yl	-1380
amp	-1381
gar	-1382
ife	-1383
irr	-1384
joy	-1385
ydr	-1386
▁ca	-1387
cept	-1388
room	-1389
▁bal	-1390
▁bar	-1391
▁beh	-1392
▁det	-1393
▁tal	-1394
▁tem	-1395
First	-1396
fully	-1397
uring	-1398
▁Just	-1399
▁days	-1400
▁heel	-1401
▁hips	-1402
▁knot	-1403
▁less	-1404
▁pair	-1405
▁pres	-1406
▁prof	-1407
▁stro	-1408
monstr	-1409
▁forth	-1410
▁image	-1411
▁match	-1412
▁reach	-1413
▁round	-1414
▁sciss	-1415
▁seven	-1416
▁since	-1417
▁speed	-1418
▁stone	-1419
▁thumb	-1420
▁tight	-1421
▁waist	-1422
▁wrist	-1423
▁batter	-1424
▁button	-1425
▁comput	-1426
▁family	-1427
▁follow	-1428
▁happen	-1429
▁motion	-1430
▁single	-1431
▁square	-1432
▁though	-1433
▁contact	-1434
▁exactly	-1435
▁complete	-1436
▁customer	-1437
▁demonstr	-1438
▁possible	-1439
▁everybody	-1440
▁technique	-1441
▁difference	-1442
▁photograph	-1443
ny	-1444
ave	-1445
com	-1446
▁Al	-1447
Well	-1448
ames	-1449
eeze	-1450
ific	-1451
line	-1452
oles	-1453
ones	-1454
ures	-1455
▁bul	-1456
▁ent	-1457
▁mon	-1458
▁pad	-1459
▁sch	-1460
▁wee	-1461
▁wet	-1462
▁blue	-1463
▁cook	-1464
▁cool	-1465
▁dark	-1466
▁didn	-1467
▁hour	-1468
▁love	-1469
▁mark	-1470
▁milk	-1471
▁mind	-1472
▁read	-1473
▁spot	-1474
▁tire	-1475
▁vide	-1476
▁wall	-1477
▁edges	-1478
▁exper	-1479
▁knife	-1480
▁needs	-1481
▁punch	-1482
▁table	-1483
▁client	-1484
▁corner	-1485
▁select	-1486
ormation	-1487
▁against	-1488
▁plastic	-1489
▁profess	-1490
▁surface	-1491
▁climbing	-1492
▁properly	-1493
▁depending	-1494
▁direction	-1495
dd	-1496
aut	-1497
ian	-1498
imm	-1499
oom	-1500
oon	-1501
ted	-1502
ual	-1503
uct	-1504
That	-1505
ices	-1506
iend	-1507
irty	-1508
ract	-1509
▁abs	-1510
▁bad	-1511
▁hoo	-1512
▁mom	-1513
▁pan	-1514
▁pay	-1515
▁vis	-1516
▁Make	-1517
▁fair	-1518
▁fill	-1519
▁idea	-1520
▁pour	-1521
▁trip	-1522
ension	-1523
▁dress	-1524
▁drink	-1525
▁enjoy	-1526
▁frame	-1527
▁leave	-1528
▁night	-1529
▁print	-1530
▁shape	-1531
▁smoke	-1532
▁sound	-1533
▁sugar	-1534
▁attach	-1535
▁diffic	-1536
▁filter	-1537
▁talked	-1538
ometimes	-1539
▁defense	-1540
▁massage	-1541
▁process	-1542
▁running	-1543
▁computer	-1544
▁continue	-1545
▁painting	-1546
▁completely	-1547
▁information	-1548
az	-1549
ex	-1550
gy	-1551
oe	-1552
sc	-1553
ys	-1554
▁Y	-1555
ory	-1556
und	-1557
▁ap	-1558
▁wo	-1559
Also	-1560
augh	-1561
enty	-1562
ield	-1563
ites	-1564
ners	-1565
vers	-1566
▁bus	-1567
▁dam	-1568
▁deg	-1569
▁dri	-1570
▁dro	-1571
▁fle	-1572
▁glo	-1573
▁ham	-1574
▁ret	-1575
▁ste	-1576
These	-1577
ently	-1578
iness	-1579
itive	-1580
quire	-1581
▁arms	-1582
▁fire	-1583
▁kids	-1584
▁lips	-1585
▁mirr	-1586
▁resp	-1587
▁ring	-1588
▁stop	-1589
▁test	-1590
colate	-1591
ommend	-1592
▁angle	-1593
▁beaut	-1594
▁benef	-1595
▁blend	-1596
▁chain	-1597
▁drill	-1598
▁juice	-1599
▁local	-1600
▁screw	-1601
▁spine	-1602
▁spray	-1603
▁third	-1604
▁years	-1605
Alright	-1606
ination	-1607
▁compet	-1608
▁decide	-1609
▁double	-1610
▁easily	-1611
▁entire	-1612
▁friend	-1613
▁plants	-1614
▁safety	-1615
▁slight	-1616
▁temper	-1617
▁Another	-1618
▁Because	-1619
▁balance	-1620
▁fingers	-1621
▁protect	-1622
▁section	-1623
▁smaller	-1624
▁scissors	-1625
▁character	-1626
▁recommend	-1627
aj	-1628
fe	-1629
na	-1630
▁6	-1631
"",	-1632
ext	-1633
gan	-1634
lly	-1635
oun	-1636
ues	-1637
▁Br	-1638
▁Do	-1639
▁em	-1640
cuss	-1641
hale	-1642
nect	-1643
▁aud	-1644
▁cra	-1645
▁nec	-1646
▁neg	-1647
▁pat	-1648
▁pen	-1649
▁sol	-1650
ately	-1651
iting	-1652
▁belt	-1653
▁drib	-1654
▁expl	-1655
▁loop	-1656
▁lots	-1657
▁ones	-1658
▁prep	-1659
▁root	-1660
▁rout	-1661
▁tips	-1662
▁Today	-1663
▁drive	-1664
▁gives	-1665
▁group	-1666
▁inter	-1667
▁parts	-1668
▁smell	-1669
▁teach	-1670
▁tools	-1671
▁works	-1672
▁access	-1673
▁inches	-1674
▁necess	-1675
▁normal	-1676
▁stitch	-1677
▁careful	-1678
▁discuss	-1679
▁muscles	-1680
▁playing	-1681
▁prevent	-1682
▁require	-1683
▁setting	-1684
▁sitting	-1685
▁anywhere	-1686
▁personal	-1687
▁problems	-1688
▁chocolate	-1689
▁difficult	-1690
▁temperature	-1691
▁professional	-1692
io	-1693
ng	-1694
ams	-1695
ced	-1696
con	-1697
eet	-1698
era	-1699
oid	-1700
old	-1701
rom	-1702
uce	-1703
▁Or	-1704
▁Wh	-1705
""."	-1706
ades	-1707
back	-1708
gest	-1709
ieve	-1710
ilar	-1711
lier	-1712
oney	-1713
▁She	-1714
▁age	-1715
▁ant	-1716
▁ass	-1717
▁bat	-1718
▁bid	-1719
▁bow	-1720
▁dip	-1721
▁eat	-1722
▁eng	-1723
▁fab	-1724
▁hur	-1725
▁inv	-1726
▁tre	-1727
ables	-1728
arily	-1729
aring	-1730
izing	-1731
osite	-1732
velop	-1733
▁Keep	-1734
▁Some	-1735
▁bath	-1736
▁dogs	-1737
▁ener	-1738
▁heal	-1739
▁hope	-1740
▁lean	-1741
▁life	-1742
▁mist	-1743
▁near	-1744
▁port	-1745
▁pref	-1746
▁rock	-1747
▁self	-1748
▁snow	-1749
▁stud	-1750
▁tank	-1751
▁tape	-1752
▁webs	-1753
▁week	-1754
▁word	-1755
imming	-1756
▁brown	-1757
▁eight	-1758
▁elbow	-1759
▁gener	-1760
▁happy	-1761
▁heart	-1762
▁loose	-1763
▁moist	-1764
▁often	-1765
▁organ	-1766
▁steps	-1767
▁toile	-1768
▁wants	-1769
▁wrong	-1770
▁basket	-1771
▁behind	-1772
▁common	-1773
▁garlic	-1774
▁higher	-1775
▁larger	-1776
▁leaves	-1777
▁mirror	-1778
▁orange	-1779
▁powder	-1780
▁strong	-1781
▁thirty	-1782
▁company	-1783
▁control	-1784
▁develop	-1785
▁project	-1786
▁similar	-1787
▁squeeze	-1788
▁turning	-1789
▁whether	-1790
▁consider	-1791
▁distance	-1792
▁opposite	-1793
▁somebody	-1794
▁thinking	-1795
▁attention	-1796
▁questions	-1797
To	-1798
cl	-1799
Let	-1800
arp	-1801
erv	-1802
ium	-1803
thy	-1804
top	-1805
ups	-1806
▁1/	-1807
▁20	-1808
▁On	-1809
▁bi	-1810
▁ru	-1811
ajor	-1812
ants	-1813
cket	-1814
duce	-1815
ered	-1816
ined	-1817
ited	-1818
ives	-1819
olog	-1820
reen	-1821
resh	-1822
work	-1823
▁bab	-1824
▁bed	-1825
▁equ	-1826
▁ess	-1827
▁ice	-1828
▁ide	-1829
▁log	-1830
▁mat	-1831
▁scr	-1832
▁sle	-1833
▁tot	-1834
board	-1835
ening	-1836
pping	-1837
stand	-1838
▁caus	-1839
▁chop	-1840
▁circ	-1841
▁clay	-1842
▁dirt	-1843
▁fift	-1844
▁fore	-1845
▁gear	-1846
▁girl	-1847
▁gold	-1848
▁golf	-1849
▁grip	-1850
▁hoop	-1851
▁land	-1852
▁lead	-1853
▁list	-1854
▁mask	-1855
▁mold	-1856
▁pack	-1857
▁plan	-1858
▁shap	-1859
▁term	-1860
ensive	-1861
▁apart	-1862
▁avoid	-1863
▁carry	-1864
▁count	-1865
▁early	-1866
▁favor	-1867
▁green	-1868
▁guide	-1869
▁kinds	-1870
▁layer	-1871
▁major	-1872
▁mater	-1873
▁money	-1874
▁pound	-1875
▁quart	-1876
▁shoot	-1877
▁slice	-1878
▁slide	-1879
▁speak	-1880
▁steel	-1881
▁towel	-1882
▁trans	-1883
▁worry	-1884
ational	-1885
emember	-1886
ulation	-1887
▁camera	-1888
▁circle	-1889
▁damage	-1890
▁fabric	-1891
▁facing	-1892
▁flavor	-1893
▁handle	-1894
▁lights	-1895
▁moment	-1896
▁secure	-1897
▁starts	-1898
▁toilet	-1899
▁connect	-1900
▁earlier	-1901
▁hitting	-1902
▁players	-1903
▁quickly	-1904
▁started	-1905
▁support	-1906
▁telling	-1907
▁children	-1908
▁creating	-1909
▁material	-1910
▁negative	-1911
▁speaking	-1912
▁effective	-1913
▁demonstrate	-1914
An	-1915
ah	-1916
aw	-1917
ph	-1918
sw	-1919
ery	-1920
gen	-1921
ilt	-1922
imp	-1923
ixt	-1924
izz	-1925
led	-1926
not	-1927
oga	-1928
oll	-1929
olt	-1930
ped	-1931
por	-1932
rib	-1933
utr	-1934
▁Be	-1935
▁Go	-1936
▁He	-1937
Just	-1938
aybe	-1939
bers	-1940
cent	-1941
ello	-1942
ffee	-1943
iced	-1944
iful	-1945
itar	-1946
izes	-1947
just	-1948
ults	-1949
ware	-1950
▁Can	-1951
▁bro	-1952
▁cat	-1953
▁fat	-1954
▁fro	-1955
▁fur	-1956
▁hop	-1957
▁mag	-1958
▁men	-1959
▁mod	-1960
▁nap	-1961
▁net	-1962
▁suc	-1963
▁wom	-1964
anger	-1965
light	-1966
meric	-1967
orter	-1968
stick	-1969
veral	-1970
▁Here	-1971
▁Well	-1972
▁baby	-1973
▁blow	-1974
▁bone	-1975
▁core	-1976
▁cost	-1977
▁ever	-1978
▁fash	-1979
▁guys	-1980
▁hund	-1981
▁mult	-1982
▁nose	-1983
▁rece	-1984
▁seat	-1985
▁sell	-1986
▁soon	-1987
▁tend	-1988
▁tiss	-1989
▁toes	-1990
▁trou	-1991
▁wrap	-1992
▁yard	-1993
▁belly	-1994
▁crack	-1995
▁fresh	-1996
▁grind	-1997
▁hours	-1998
▁ideas	-1999
▁jeans	-2000
▁progr	-2001
▁spend	-2002
▁stain	-2003
▁strap	-2004
▁sweet	-2005
▁taste	-2006
▁write	-2007
Because	-2008
▁Americ	-2009
▁allows	-2010
▁bigger	-2011
▁during	-2012
▁energy	-2013
▁extend	-2014
▁fairly	-2015
▁guitar	-2016
▁itself	-2017
▁places	-2018
▁return	-2019
▁seeing	-2020
▁stance	-2021
▁travel	-2022
▁wanted	-2023
▁contain	-2024
▁drawing	-2025
▁explain	-2026
▁feeling	-2027
▁hundred	-2028
▁mention	-2029
▁partner	-2030
▁problem	-2031
▁release	-2032
▁seconds	-2033
▁several	-2034
▁showing	-2035
▁special	-2036
▁trouble	-2037
▁walking	-2038
▁business	-2039
▁specific	-2040
▁standing	-2041
▁throwing	-2042
▁treatment	-2043
▁necessarily	-2044
Or	-2045
St	-2046
me	-2047
pr	-2048
ym	-2049
▁7	-2050
How	-2051
ads	-2052
aps	-2053
ato	-2054
avi	-2055
aze	-2056
car	-2057
els	-2058
hip	-2059
ify	-2060
ins	-2061
iny	-2062
ipe	-2063
ism	-2064
kin	-2065
ler	-2066
let	-2067
man	-2068
uit	-2069
ung	-2070
vie	-2071
vis	-2072
▁15	-2073
Here	-2074
acon	-2075
ales	-2076
bles	-2077
hing	-2078
hydr	-2079
iger	-2080
imum	-2081
less	-2082
ngth	-2083
oint	-2084
oove	-2085
over	-2086
pped	-2087
▁100	-2088
▁Joe	-2089
▁Not	-2090
▁ank	-2091
▁dim	-2092
▁fig	-2093
▁gro	-2094
▁iss	-2095
▁mel	-2096
▁pal	-2097
▁par	-2098
▁pol	-2099
▁pub	-2100
▁raw	-2101
▁shr	-2102
▁tar	-2103
▁tor	-2104
acket	-2105
allen	-2106
anced	-2107
aster	-2108
ering	-2109
iling	-2110
olute	-2111
ounce	-2112
uffle	-2113
▁Once	-2114
▁When	-2115
▁bike	-2116
▁boat	-2117
▁bulb	-2118
▁cold	-2119
▁cups	-2120
▁dent	-2121
▁hear	-2122
▁heav	-2123
▁kite	-2124
▁live	-2125
▁meet	-2126
▁must	-2127
▁oily	-2128
▁phys	-2129
▁pill	-2130
▁prin	-2131
▁purp	-2132
▁qual	-2133
▁rice	-2134
▁salt	-2135
▁says	-2136
▁shad	-2137
▁sign	-2138
▁situ	-2139
▁tack	-2140
▁team	-2141
▁ther	-2142
▁tuck	-2143
▁vers	-2144
▁bacon	-2145
▁blood	-2146
▁cards	-2147
▁decor	-2148
▁deter	-2149
▁elect	-2150
▁goals	-2151
▁impro	-2152
▁indic	-2153
▁model	-2154
▁mount	-2155
▁party	-2156
▁plate	-2157
▁power	-2158
▁serve	-2159
▁sharp	-2160
▁shoes	-2161
▁teeth	-2162
▁video	-2163
ections	-2164
▁adjust	-2165
▁altern	-2166
▁closed	-2167
▁coffee	-2168
▁commun	-2169
▁detail	-2170
▁essent	-2171
▁giving	-2172
▁height	-2173
▁medium	-2174
▁minute	-2175
▁needle	-2176
▁object	-2177
▁points	-2178
▁riding	-2179
▁rubber	-2180
▁twenty	-2181
▁wouldn	-2182
▁challen	-2183
▁cutting	-2184
▁dollars	-2185
▁dribble	-2186
▁happens	-2187
▁nothing	-2188
▁perform	-2189
▁prepare	-2190
▁pulling	-2191
▁relaxed	-2192
▁success	-2193
▁baseball	-2194
▁cleaning	-2195
▁elements	-2196
▁learning	-2197
▁movement	-2198
▁normally	-2199
▁slightly	-2200
▁strength	-2201
▁training	-2202
▁beautiful	-2203
▁relations	-2204
▁typically	-2205
▁throughout	-2206
▁understand	-2207
▁vegetables	-2208
▁combination	-2209
▁interesting	-2210
▁photography	-2211
At	-2212
ew	-2213
go	-2214
▁'	-2215
All	-2216
Get	-2217
aur	-2218
cil	-2219
ied	-2220
ime	-2221
ina	-2222
ley	-2223
nis	-2224
ote	-2225
ots	-2226
ris	-2227
sel	-2228
ude	-2229
unk	-2230
val	-2231
▁--	-2232
▁Ar	-2233
▁Cl	-2234
▁Re	-2235
▁Un	-2236
Like	-2237
Some	-2238
aken	-2239
ases	-2240
cern	-2241
cery	-2242
chan	-2243
ding	-2244
ided	-2245
inal	-2246
iner	-2247
iple	-2248
iter	-2249
ized	-2250
lace	-2251
lish	-2252
orcy	-2253
ored	-2254
orry	-2255
tion	-2256
▁Don	-2257
▁For	-2258
▁Rus	-2259
▁aut	-2260
▁bub	-2261
▁dig	-2262
▁flo	-2263
▁gym	-2264
▁ink	-2265
▁lap	-2266
▁lid	-2267
▁max	-2268
▁pic	-2269
▁rot	-2270
▁sew	-2271
▁sil	-2272
▁tie	-2273
▁val	-2274
Today	-2275
aught	-2276
conut	-2277
eding	-2278
ients	-2279
ution	-2280
▁Step	-2281
▁Your	-2282
▁beef	-2283
▁bowl	-2284
▁burn	-2285
▁cent	-2286
▁film	-2287
▁flex	-2288
▁flip	-2289
▁goal	-2290
▁gray	-2291
▁grow	-2292
▁hang	-2293
▁hing	-2294
▁hydr	-2295
▁infl	-2296
▁item	-2297
▁load	-2298
▁lock	-2299
▁oven	-2300
▁peel	-2301
▁pins	-2302
▁plus	-2303
▁save	-2304
▁slip	-2305
▁soil	-2306
▁text	-2307
▁wide	-2308
▁yoga	-2309
▁zoom	-2310
lights	-2311
ounces	-2312
selves	-2313
struct	-2314
▁First	-2315
▁Maybe	-2316
▁above	-2317
▁added	-2318
▁areas	-2319
▁avail	-2320
▁books	-2321
▁brake	-2322
▁bunch	-2323
▁clock	-2324
▁drain	-2325
▁names	-2326
▁purch	-2327
▁raise	-2328
▁sheet	-2329
▁skill	-2330
▁skirt	-2331
▁strip	-2332
▁taken	-2333
▁tract	-2334
▁turns	-2335
▁women	-2336
▁world	-2337
However	-2338
ception	-2339
ensions	-2340
▁adding	-2341
▁affect	-2342
▁applic	-2343
▁artist	-2344
▁blocks	-2345
▁cannot	-2346
▁cheese	-2347
▁collar	-2348
▁confid	-2349
▁danger	-2350
▁determ	-2351
▁groove	-2352
▁harder	-2353
▁muscle	-2354
▁pencil	-2355
▁perman	-2356
▁please	-2357
▁pulled	-2358
▁record	-2359
▁school	-2360
▁shapes	-2361
▁shower	-2362
▁sticks	-2363
▁thread	-2364
▁toward	-2365
▁Alright	-2366
▁battery	-2367
▁classic	-2368
▁coconut	-2369
▁collect	-2370
▁command	-2371
▁concern	-2372
▁corners	-2373
▁fashion	-2374
▁further	-2375
▁grocery	-2376
▁healthy	-2377
▁holding	-2378
▁install	-2379
▁numbers	-2380
▁popular	-2381
▁quality	-2382
▁rolling	-2383
▁wearing	-2384
▁bathroom	-2385
▁directly	-2386
▁pressing	-2387
▁products	-2388
▁watching	-2389
▁Sometimes	-2390
▁extension	-2391
▁vegetable	-2392
▁experience	-2393
Do	-2394
My	-2395
by	-2396
cc	-2397
ey	-2398
ka	-2399
lo	-2400
▁-	-2401
aks	-2402
alt	-2403
ana	-2404
att	-2405
coh	-2406
dit	-2407
eah	-2408
fly	-2409
med	-2410
met	-2411
nam	-2412
opy	-2413
son	-2414
ume	-2415
via	-2416
▁18	-2417
▁2,	-2418
▁Dr	-2419
▁Ex	-2420
▁No	-2421
▁ps	-2422
."""	-2423
Make	-2424
aced	-2425
ache	-2426
aily	-2427
anch	-2428
arch	-2429
cara	-2430
cing	-2431
epar	-2432
iers	-2433
inse	-2434
king	-2435
ober	-2436
odka	-2437
pect	-2438
pers	-2439
sing	-2440
vert	-2441
vide	-2442
wise	-2443
wner	-2444
wood	-2445
▁1/2	-2446
▁Are	-2447
▁bor	-2448
▁cow	-2449
▁dev	-2450
▁ing	-2451
▁lad	-2452
▁met	-2453
▁mic	-2454
▁non	-2455
▁rod	-2456
▁saw	-2457
▁toe	-2458
▁wid	-2459
Where	-2460
ading	-2461
avier	-2462
centr	-2463
cohol	-2464
ities	-2465
odies	-2466
olved	-2467
ories	-2468
ropri	-2469
ulate	-2470
verse	-2471
welry	-2472
▁Aust	-2473
▁Take	-2474
▁answ	-2475
▁bags	-2476
▁boom	-2477
▁came	-2478
▁chin	-2479
▁clas	-2480
▁clos	-2481
▁coun	-2482
▁danc	-2483
▁dial	-2484
▁diam	-2485
▁disc	-2486
▁ends	-2487
▁eyel	-2488
▁hous	-2489
▁hurt	-2490
▁lets	-2491
▁liqu	-2492
▁loos	-2493
▁magn	-2494
▁meat	-2495
▁orig	-2496
▁tele	-2497
▁tent	-2498
▁tone	-2499
▁took	-2500
▁tree	-2501
▁wedd	-2502
▁youâ	-2503
porate	-2504
ulated	-2505
▁Thank	-2506
▁accur	-2507
▁appro	-2508
▁becom	-2509
▁braid	-2510
▁chang	-2511
▁chick	-2512
▁chord	-2513
▁clubs	-2514
▁cross	-2515
▁crown	-2516
▁degre	-2517
▁event	-2518
▁field	-2519
▁flame	-2520
▁gloss	-2521
▁grain	-2522
▁heard	-2523
▁heels	-2524
▁hinge	-2525
▁holes	-2526
▁inner	-2527
▁intro	-2528
▁kings	-2529
▁liter	-2530
▁month	-2531
▁nails	-2532
▁outer	-2533
▁pages	-2534
▁phone	-2535
▁rinse	-2536
▁route	-2537
▁sauce	-2538
▁shots	-2539
▁sorry	-2540
▁squat	-2541
▁state	-2542
▁stuck	-2543
▁super	-2544
▁therm	-2545
▁thigh	-2546
▁tiger	-2547
▁topic	-2548
▁upper	-2549
▁vodka	-2550
ability	-2551
▁bottle	-2552
▁bright	-2553
▁credit	-2554
▁dollar	-2555
▁elbows	-2556
▁expert	-2557
▁figure	-2558
▁garage	-2559
▁gently	-2560
▁hamstr	-2561
▁indoor	-2562
▁ingred	-2563
▁layers	-2564
▁litter	-2565
▁market	-2566
▁mechan	-2567
▁napkin	-2568
▁nicely	-2569
▁ounces	-2570
▁pliers	-2571
▁prefer	-2572
▁repair	-2573
▁shadow	-2574
▁showed	-2575
▁spread	-2576
▁spring	-2577
▁target	-2578
▁tissue	-2579
▁winter	-2580
▁within	-2581
▁wonder	-2582
▁believe	-2583
▁breathe	-2584
▁driving	-2585
▁friends	-2586
▁heavier	-2587
▁helpful	-2588
▁learned	-2589
▁letters	-2590
▁mascara	-2591
▁motorcy	-2592
▁outline	-2593
▁present	-2594
▁receive	-2595
▁restaur	-2596
▁shorter	-2597
▁strokes	-2598
▁subject	-2599
▁website	-2600
▁American	-2601
▁absolute	-2602
▁advanced	-2603
▁appropri	-2604
▁benefits	-2605
▁clothing	-2606
▁concentr	-2607
▁controll	-2608
▁dropping	-2609
▁favorite	-2610
▁instance	-2611
▁lengthen	-2612
▁lipstick	-2613
▁purchase	-2614
▁available	-2615
▁challenge	-2616
▁hopefully	-2617
▁mentioned	-2618
▁thickness	-2619
▁foundation	-2620
▁highlights	-2621
▁protection	-2622
▁successful	-2623
▁measurement	-2624
00	-2625
AR	-2626
Be	-2627
ER	-2628
ON	-2629
Sh	-2630
ai	-2631
br	-2632
mb	-2633
oh	-2634
sh	-2635
xy	-2636
▁(	-2637
Don	-2638
Not	-2639
Put	-2640
aid	-2641
alf	-2642
aul	-2643
bit	-2644
bor	-2645
dom	-2646
eds	-2647
eek	-2648
ert	-2649
ffe	-2650
ham	-2651
icy	-2652
oli	-2653
ops	-2654
rit	-2655
uid	-2656
ula	-2657
vir	-2658
ych	-2659
▁1,	-2660
▁Fl	-2661
▁Ok	-2662
▁Sh	-2663
▁Sp	-2664
▁ce	-2665
▁ly	-2666
Next	-2667
With	-2668
aged	-2669
ails	-2670
brow	-2671
ctor	-2672
dget	-2673
elve	-2674
ency	-2675
etic	-2676
fter	-2677
ging	-2678
ious	-2679
ised	-2680
iver	-2681
izza	-2682
lies	-2683
onge	-2684
sell	-2685
view	-2686
▁Get	-2687
▁How	-2688
▁San	-2689
▁Syl	-2690
▁Tim	-2691
▁Why	-2692
▁aff	-2693
▁coo	-2694
▁eff	-2695
▁egg	-2696
▁ens	-2697
▁hum	-2698
▁kay	-2699
▁lim	-2700
▁mor	-2701
▁mud	-2702
▁ski	-2703
▁spl	-2704
▁sum	-2705
▁tan	-2706
▁tri	-2707
▁tun	-2708
▁tur	-2709
▁war	-2710
▁zip	-2711
ances	-2712
ashes	-2713
azing	-2714
ender	-2715
enses	-2716
icing	-2717
iding	-2718
itter	-2719
ought	-2720
resso	-2721
ribut	-2722
umber	-2723
utral	-2724
▁Mich	-2725
▁Next	-2726
▁Paul	-2727
▁acts	-2728
▁aren	-2729
▁calc	-2730
▁carp	-2731
▁chem	-2732
▁cute	-2733
▁cuts	-2734
▁dish	-2735
▁drag	-2736
▁fake	-2737
▁flag	-2738
▁foam	-2739
▁gran	-2740
▁init	-2741
▁lose	-2742
▁miss	-2743
▁outf	-2744
▁page	-2745
▁palm	-2746
▁path	-2747
▁rain	-2748
▁safe	-2749
▁send	-2750
▁shoe	-2751
▁sixt	-2752
▁soft	-2753
▁sour	-2754
▁tall	-2755
▁tiny	-2756
▁true	-2757
imeter	-2758
▁Every	-2759
▁Right	-2760
▁ankle	-2761
▁balls	-2762
▁basis	-2763
▁brace	-2764
▁built	-2765
▁bulbs	-2766
▁chair	-2767
▁clips	-2768
▁coats	-2769
▁court	-2770
▁equip	-2771
▁feels	-2772
▁final	-2773
▁fluid	-2774
▁frost	-2775
▁glaze	-2776
▁heavy	-2777
▁ident	-2778
▁incor	-2779
▁items	-2780
▁knows	-2781
▁moves	-2782
▁owner	-2783
▁pause	-2784
▁poles	-2785
▁pores	-2786
▁psych	-2787
▁refer	-2788
▁sched	-2789
▁separ	-2790
▁sizes	-2791
▁snake	-2792
▁spark	-2793
▁sport	-2794
▁stage	-2795
▁steam	-2796
▁steep	-2797
▁sweep	-2798
▁width	-2799
▁worth	-2800
▁young	-2801
Another	-2802
▁States	-2803
▁Sylvia	-2804
▁United	-2805
▁actual	-2806
▁attack	-2807
▁baking	-2808
▁breast	-2809
▁budget	-2810
▁causes	-2811
▁chance	-2812
▁dealer	-2813
▁degree	-2814
▁dehydr	-2815
▁detect	-2816
▁engine	-2817
▁excess	-2818
▁expect	-2819
▁faster	-2820
▁gloves	-2821
▁grease	-2822
▁groups	-2823
▁hammer	-2824
▁inhale	-2825
▁likely	-2826
▁mixing	-2827
▁pillow	-2828
▁public	-2829
▁resist	-2830
▁shrimp	-2831
▁skills	-2832
▁spades	-2833
▁specif	-2834
▁sponge	-2835
▁struct	-2836
▁tennis	-2837
▁tricks	-2838
▁tripod	-2839
▁twelve	-2840
▁versus	-2841
▁Russell	-2842
▁account	-2843
▁alcohol	-2844
▁becomes	-2845
▁biggest	-2846
▁bubbles	-2847
▁conflic	-2848
▁consist	-2849
▁correct	-2850
▁counter	-2851
▁curling	-2852
▁eyebrow	-2853
▁flowers	-2854
▁general	-2855
▁helping	-2856
▁however	-2857
▁impress	-2858
▁jewelry	-2859
▁leaning	-2860
▁letting	-2861
▁lighter	-2862
▁morning	-2863
▁neutral	-2864
▁opposed	-2865
▁patient	-2866
▁purpose	-2867
▁quarter	-2868
▁speaker	-2869
▁systems	-2870
▁texture	-2871
▁thicker	-2872
▁thought	-2873
▁totally	-2874
▁wedding	-2875
▁weights	-2876
Sometimes	-2877
▁Remember	-2878
▁attached	-2879
▁audience	-2880
▁audition	-2881
▁chemical	-2882
▁communic	-2883
▁covering	-2884
▁espresso	-2885
▁everyday	-2886
▁everyone	-2887
▁finished	-2888
▁moisture	-2889
▁momentum	-2890
▁multiple	-2891
▁programs	-2892
▁question	-2893
▁sections	-2894
▁spinning	-2895
▁supposed	-2896
▁swimming	-2897
▁wherever	-2898
▁carefully	-2899
▁certainly	-2900
▁container	-2901
▁indicates	-2902
▁permanent	-2903
▁psycholog	-2904
▁situation	-2905
▁wonderful	-2906
▁basketball	-2907
▁controlled	-2908
▁dehydrated	-2909
▁hamstrings	-2910
▁insulation	-2911
▁techniques	-2912
▁application	-2913
▁essentially	-2914
▁relationship	-2915
AN	-2916
LL	-2917
No	-2918
Ob	-2919
Ok	-2920
ae	-2921
da	-2922
dy	-2923
hy	-2924
lt	-2925
no	-2926
oc	-2927
ox	-2928
we	-2929
,""	-2930
.""	-2931
?""	-2932
Any	-2933
Hey	-2934
SON	-2935
bra	-2936
ded	-2937
ead	-2938
eed	-2939
ero	-2940
ida	-2941
iec	-2942
ili	-2943
inj	-2944
ino	-2945
iod	-2946
ken	-2947
key	-2948
nel	-2949
ode	-2950
rac	-2951
set	-2952
the	-2953
tle	-2954
ule	-2955
win	-2956
you	-2957
zor	-2958
▁3,	-2959
▁5,	-2960
▁8,	-2961
▁ur	-2962
ancy	-2963
ateg	-2964
ayer	-2965
ccol	-2966
cell	-2967
chet	-2968
come	-2969
ests	-2970
exas	-2971
foli	-2972
hand	-2973
icep	-2974
iest	-2975
ikes	-2976
ique	-2977
irls	-2978
irth	-2979
ises	-2980
ivid	-2981
lesc	-2982
medi	-2983
nces	-2984
oice	-2985
opes	-2986
orth	-2987
oses	-2988
pply	-2989
raid	-2990
ring	-2991
tile	-2992
time	-2993
ulse	-2994
umps	-2995
what	-2996
▁Any	-2997
▁Ask	-2998
▁Cap	-2999
▁Our	-3000
▁See	-3001
▁bur	-3002
▁cab	-3003
▁cro	-3004
▁dat	-3005
▁dee	-3006
▁est	-3007
▁fac	-3008
▁fem	-3009
▁fut	-3010
▁hat	-3011
▁inj	-3012
▁jer	-3013
▁lat	-3014
▁mem	-3015
▁mug	-3016
▁mur	-3017
▁nut	-3018
▁occ	-3019
▁opt	-3020
▁oth	-3021
▁oxy	-3022
▁pee	-3023
▁pep	-3024
▁pig	-3025
▁rad	-3026
▁rat	-3027
▁rim	-3028
▁sty	-3029
▁tap	-3030
▁ted	-3031
▁ton	-3032
▁umb	-3033
▁vit	-3034
▁wra	-3035
Hello	-3036
Other	-3037
Right	-3038
Since	-3039
aling	-3040
ample	-3041
ampoo	-3042
angle	-3043
asing	-3044
atoes	-3045
aving	-3046
berry	-3047
ccoli	-3048
icles	-3049
inals	-3050
ining	-3051
ipped	-3052
olley	-3053
orida	-3054
vered	-3055
viron	-3056
▁Give	-3057
▁Thai	-3058
▁adds	-3059
▁band	-3060
▁bent	-3061
▁bolt	-3062
▁bond	-3063
▁brie	-3064
▁cand	-3065
▁cars	-3066
▁cart	-3067
▁chip	-3068
▁city	-3069
▁cott	-3070
▁deck	-3071
▁diet	-3072
▁educ	-3073
▁fear	-3074
▁fist	-3075
▁gave	-3076
▁gone	-3077
▁imag	-3078
▁kill	-3079
▁leaf	-3080
▁logo	-3081
▁mart	-3082
▁mush	-3083
▁oils	-3084
▁past	-3085
▁pend	-3086
▁pine	-3087
▁pink	-3088
▁plug	-3089
▁pose	-3090
▁prim	-3091
▁race	-3092
▁rent	-3093
▁ride	-3094
▁rule	-3095
▁seem	-3096
▁seen	-3097
▁sens	-3098
▁serv	-3099
▁sets	-3100
▁shop	-3101
▁shut	-3102
▁slee	-3103
▁soda	-3104
▁stir	-3105
▁stom	-3106
▁suit	-3107
▁tact	-3108
▁teap	-3109
▁tumb	-3110
▁upon	-3111
▁wait	-3112
▁wing	-3113
▁wool	-3114
▁yeah	-3115
acture	-3116
ential	-3117
erence	-3118
ffeine	-3119
ground	-3120
ometer	-3121
screen	-3122
▁Hello	-3123
▁Rober	-3124
▁Texas	-3125
▁Those	-3126
▁angry	-3127
▁based	-3128
▁birds	-3129
▁birth	-3130
▁blade	-3131
▁blank	-3132
▁bones	-3133
▁cheek	-3134
▁compl	-3135
▁cream	-3136
▁curve	-3137
▁daily	-3138
▁dance	-3139
▁effic	-3140
▁enter	-3141
▁fence	-3142
▁fifty	-3143
▁fight	-3144
▁flash	-3145
▁foods	-3146
▁grill	-3147
▁guard	-3148
▁handy	-3149
▁holds	-3150
▁incre	-3151
▁issue	-3152
▁kitch	-3153
▁known	-3154
▁lying	-3155
▁metal	-3156
▁minus	-3157
▁molds	-3158
▁notes	-3159
▁paste	-3160
▁pitch	-3161
▁price	-3162
▁queen	-3163
▁razor	-3164
▁shake	-3165
▁sleep	-3166
▁spare	-3167
▁spoon	-3168
▁thank	-3169
▁tread	-3170
▁twice	-3171
▁words	-3172
cellent	-3173
ilities	-3174
licated	-3175
odiesel	-3176
ributed	-3177
▁Austin	-3178
▁accent	-3179
▁advant	-3180
▁afraid	-3181
▁angles	-3182
▁answer	-3183
▁bounce	-3184
▁butter	-3185
▁buying	-3186
▁curved	-3187
▁dating	-3188
▁decent	-3189
▁deeper	-3190
▁depend	-3191
▁drying	-3192
▁ensure	-3193
▁exfoli	-3194
▁exhale	-3195
▁flower	-3196
▁forget	-3197
▁future	-3198
▁houses	-3199
▁ladies	-3200
▁laptop	-3201
▁leader	-3202
▁listen	-3203
▁manner	-3204
▁melted	-3205
▁mostly	-3206
▁others	-3207
▁oxygen	-3208
▁paddle	-3209
▁period	-3210
▁picked	-3211
▁player	-3212
▁plenty	-3213
▁pocket	-3214
▁proced	-3215
▁raised	-3216
▁reduce	-3217
▁repres	-3218
▁saying	-3219
▁search	-3220
▁sounds	-3221
▁stress	-3222
▁strike	-3223
▁stroke	-3224
▁studio	-3225
▁tackle	-3226
▁telesc	-3227
▁therap	-3228
▁thighs	-3229
▁tricep	-3230
▁turned	-3231
Remember	-3232
▁Florida	-3233
▁alright	-3234
▁amazing	-3235
▁chicken	-3236
▁clients	-3237
▁cooking	-3238
▁dancing	-3239
▁degrees	-3240
▁effects	-3241
▁environ	-3242
▁fifteen	-3243
▁individ	-3244
▁kicking	-3245
▁maximum	-3246
▁meaning	-3247
▁mistake	-3248
▁moistur	-3249
▁needles	-3250
▁obvious	-3251
▁pointed	-3252
▁portion	-3253
▁posture	-3254
▁reverse	-3255
▁shuffle	-3256
▁strings	-3257
▁thinner	-3258
▁tractor	-3259
▁waiting	-3260
▁wanting	-3261
▁workout	-3262
Obviously	-3263
struction	-3264
▁accurate	-3265
▁addition	-3266
▁breaking	-3267
▁bringing	-3268
▁broccoli	-3269
▁building	-3270
▁caffeine	-3271
▁choosing	-3272
▁conflict	-3273
▁contract	-3274
▁coverage	-3275
▁creature	-3276
▁defender	-3277
▁eyebrows	-3278
▁lineback	-3279
▁mistakes	-3280
▁reaching	-3281
▁requires	-3282
▁schedule	-3283
▁standard	-3284
▁touching	-3285
▁trimming	-3286
▁tumbling	-3287
▁twisting	-3288
▁websites	-3289
▁whenever	-3290
▁backwards	-3291
▁biodiesel	-3292
▁dangerous	-3293
▁determine	-3294
▁equipment	-3295
▁happening	-3296
▁perfectly	-3297
▁selecting	-3298
▁somewhere	-3299
▁sunscreen	-3300
▁absolutely	-3301
▁decorative	-3302
▁directions	-3303
▁extensions	-3304
▁interested	-3305
▁motorcycle	-3306
▁personally	-3307
▁restaurant	-3308
▁variations	-3309
▁alternative	-3310
▁appropriate	-3311
▁competition	-3312
▁environment	-3313
▁incorporate	-3314
▁photographer	-3315
▁specifically	-3316
!"	-3317
-1	-3318
.,	-3319
20	-3320
Go	-3321
OE	-3322
OK	-3323
Of	-3324
Oh	-3325
On	-3326
RA	-3327
gn	-3328
my	-3329
uf	-3330
wo	-3331
ww	-3332
zz	-3333
▁$	-3334
▁9	-3335
▁Q	-3336
▁X	-3337
Typ	-3338
Yes	-3339
aff	-3340
apt	-3341
ava	-3342
azy	-3343
bon	-3344
box	-3345
cue	-3346
elf	-3347
ged	-3348
gle	-3349
iet	-3350
igs	-3351
ils	-3352
isp	-3353
ita	-3354
ker	-3355
mar	-3356
mun	-3357
nia	-3358
now	-3359
off	-3360
oms	-3361
oof	-3362
rab	-3363
raw	-3364
rol	-3365
ron	-3366
rot	-3367
sem	-3368
ses	-3369
thm	-3370
uni	-3371
van	-3372
vot	-3373
yer	-3374
zer	-3375
▁45	-3376
▁At	-3377
▁De	-3378
▁Fr	-3379
▁Gu	-3380
▁Iâ	-3381
▁Je	-3382
▁OK	-3383
▁Sc	-3384
▁Se	-3385
▁Tr	-3386
▁cy	-3387
▁du	-3388
▁er	-3389
▁ev	-3390
▁fi	-3391
▁hi	-3392
▁jo	-3393
▁oh	-3394
▁ok	-3395
▁ut	-3396
Keep	-3397
SONS	-3398
abet	-3399
amps	-3400
anna	-3401
anty	-3402
apan	-3403
arge	-3404
arse	-3405
ased	-3406
aser	-3407
aves	-3408
bone	-3409
cape	-3410
dden	-3411
dere	-3412
dern	-3413
ders	-3414
edge	-3415
elle	-3416
gent	-3417
gery	-3418
haps	-3419
iate	-3420
icer	-3421
iled	-3422
iliz	-3423
imal	-3424
inja	-3425
inst	-3426
isel	-3427
lass	-3428
lets	-3429
live	-3430
ller	-3431
more	-3432
noon	-3433
ogue	-3434
olts	-3435
onse	-3436
oral	-3437
osen	-3438
otch	-3439
oura	-3440
oves	-3441
pack	-3442
pend	-3443
piec	-3444
play	-3445
ream	-3446
rell	-3447
ried	-3448
rier	-3449
tail	-3450
uate	-3451
uity	-3452
ulum	-3453
ummy	-3454
used	-3455
wall	-3456
zzle	-3457
▁Car	-3458
▁Che	-3459
▁Eng	-3460
▁Hip	-3461
▁Joh	-3462
▁Lin	-3463
▁Liz	-3464
▁Mad	-3465
▁New	-3466
▁Off	-3467
▁Out	-3468
▁PAR	-3469
▁Rum	-3470
▁Sol	-3471
▁Squ	-3472
▁ath	-3473
▁boy	-3474
▁bug	-3475
▁cub	-3476
▁die	-3477
▁din	-3478
▁dot	-3479
▁enc	-3480
▁exh	-3481
▁fan	-3482
▁fre	-3483
▁gan	-3484
▁gas	-3485
▁ill	-3486
▁isn	-3487
▁itâ	-3488
▁jud	-3489
▁lab	-3490
▁law	-3491
▁mul	-3492
▁ped	-3493
▁rhy	-3494
▁ris	-3495
▁row	-3496
▁soc	-3497
▁sym	-3498
▁tom	-3499
▁toy	-3500
▁und	-3501
▁wed	-3502
▁wok	-3503
▁wol	-3504
▁www	-3505
▁yes	-3506
▁zop	-3507
After	-3508
Every	-3509
Start	-3510
allon	-3511
altor	-3512
amber	-3513
asana	-3514
attoo	-3515
brush	-3516
derer	-3517
ellow	-3518
ences	-3519
entle	-3520
eople	-3521
ethod	-3522
eties	-3523
icial	-3524
inary	-3525
inder	-3526
ision	-3527
itten	-3528
lines	-3529
onent	-3530
oomer	-3531
osing	-3532
osure	-3533
plant	-3534
ranty	-3535
rench	-3536
rogen	-3537
rooms	-3538
rylic	-3539
uence	-3540
water	-3541
▁Also	-3542
▁Does	-3543
▁Hold	-3544
▁Jack	-3545
▁Most	-3546
▁Nick	-3547
▁Star	-3548
▁Tide	-3549
▁With	-3550
▁acid	-3551
▁afro	-3552
▁anch	-3553
▁bash	-3554
▁beak	-3555
▁beer	-3556
▁blad	-3557
▁boas	-3558
▁cage	-3559
▁cake	-3560
▁calf	-3561
▁clap	-3562
▁cone	-3563
▁copy	-3564
▁date	-3565
▁dead	-3566
▁drew	-3567
▁drug	-3568
▁dumb	-3569
▁dust	-3570
▁ears	-3571
▁fant	-3572
▁file	-3573
▁flea	-3574
▁gift	-3575
▁hood	-3576
▁incl	-3577
▁isol	-3578
▁jean	-3579
▁knob	-3580
▁lady	-3581
▁lava	-3582
▁lost	-3583
▁mach	-3584
▁mail	-3585
▁math	-3586
▁mess	-3587
▁mill	-3588
▁mixt	-3589
▁mort	-3590
▁nood	-3591
▁oper	-3592
▁pace	-3593
▁pimp	-3594
▁pipe	-3595
▁poin	-3596
▁pole	-3597
▁prop	-3598
▁rect	-3599
▁reel	-3600
▁remo	-3601
▁repe	-3602
▁road	-3603
▁seal	-3604
▁seed	-3605
▁sequ	-3606
▁sewn	-3607
▁snap	-3608
▁sore	-3609
▁spir	-3610
▁stap	-3611
▁stim	-3612
▁sugg	-3613
▁tops	-3614
▁toss	-3615
▁town	-3616
▁trad	-3617
▁trim	-3618
▁uses	-3619
▁util	-3620
▁vint	-3621
▁volt	-3622
▁zone	-3623
ansing	-3624
iction	-3625
icycle	-3626
istant	-3627
ousand	-3628
redded	-3629
sually	-3630
thetic	-3631
though	-3632
verine	-3633
▁Apply	-3634
▁Bring	-3635
▁Japan	-3636
▁Ninja	-3637
▁Press	-3638
▁abdom	-3639
▁absor	-3640
▁adapt	-3641
▁aside	-3642
▁autom	-3643
▁below	-3644
▁bench	-3645
▁bevel	-3646
▁boats	-3647
▁boxes	-3648
▁bread	-3649
▁cable	-3650
▁canal	-3651
▁cases	-3652
▁chalk	-3653
▁cheer	-3654
▁clasp	-3655
▁contr	-3656
▁craft	-3657
▁crisp	-3658
▁drops	-3659
▁extre	-3660
▁fancy	-3661
▁fiber	-3662
▁fives	-3663
▁force	-3664
▁fruit	-3665
▁funct	-3666
▁funny	-3667
▁given	-3668
▁glove	-3669
▁grass	-3670
▁heads	-3671
▁irrit	-3672
▁kayak	-3673
▁keeps	-3674
▁kites	-3675
▁knots	-3676
▁leash	-3677
▁lever	-3678
▁likes	-3679
▁manuf	-3680
▁medic	-3681
▁miles	-3682
▁motiv	-3683
▁music	-3684
▁neigh	-3685
▁onion	-3686
▁ounce	-3687
▁overl	-3688
▁panel	-3689
▁pants	-3690
▁photo	-3691
▁pivot	-3692
▁pizza	-3693
▁plain	-3694
▁polit	-3695
▁pulls	-3696
▁pulse	-3697
▁quiet	-3698
▁repro	-3699
▁river	-3700
▁scale	-3701
▁seems	-3702
▁solid	-3703
▁squee	-3704
▁story	-3705
▁straw	-3706
▁subst	-3707
▁teddy	-3708
▁tense	-3709
▁terms	-3710
▁tired	-3711
▁tires	-3712
▁total	-3713
▁trees	-3714
▁trust	-3715
▁value	-3716
▁vitam	-3717
▁voice	-3718
▁wider	-3719
▁wings	-3720
▁wires	-3721
▁yards	-3722
▁yummy	-3723
Whether	-3724
acteria	-3725
acturer	-3726
ibility	-3727
ignment	-3728
▁Robert	-3729
▁Thanks	-3730
▁anyone	-3731
▁aspect	-3732
▁assess	-3733
▁athlet	-3734
▁beauty	-3735
▁blades	-3736
▁bought	-3737
▁branch	-3738
▁chains	-3739
▁chisel	-3740
▁choice	-3741
▁cloves	-3742
▁coarse	-3743
▁cooked	-3744
▁cotton	-3745
▁dental	-3746
▁ending	-3747
▁extern	-3748
▁factor	-3749
▁flight	-3750
▁folded	-3751
▁forest	-3752
▁gather	-3753
▁golden	-3754
▁gotten	-3755
▁holdem	-3756
▁images	-3757
▁invent	-3758
▁issues	-3759
▁keeper	-3760
▁layout	-3761
▁liquid	-3762
▁loosen	-3763
▁mainly	-3764
▁makeup	-3765
▁method	-3766
▁modern	-3767
▁myself	-3768
▁onions	-3769
▁outfit	-3770
▁paying	-3771
▁placed	-3772
▁polish	-3773
▁render	-3774
▁rhythm	-3775
▁screws	-3776
▁season	-3777
▁seated	-3778
▁shield	-3779
▁squash	-3780
▁stores	-3781
▁straps	-3782
▁strips	-3783
▁sudden	-3784
▁supply	-3785
▁taught	-3786
▁teapot	-3787
▁transl	-3788
▁unless	-3789
▁upside	-3790
▁videos	-3791
▁volley	-3792
▁worked	-3793
▁yellow	-3794
Whenever	-3795
asically	-3796
ographer	-3797
vertible	-3798
▁English	-3799
▁PARSONS	-3800
▁Realtor	-3801
▁acrylic	-3802
▁address	-3803
▁allowed	-3804
▁barrier	-3805
▁benefit	-3806
▁bidding	-3807
▁camping	-3808
▁capable	-3809
▁casting	-3810
▁ceiling	-3811
▁chamber	-3812
▁circuit	-3813
▁classes	-3814
▁cleaned	-3815
▁compost	-3816
▁comprom	-3817
▁concept	-3818
▁covered	-3819
▁created	-3820
▁crochet	-3821
▁cutters	-3822
▁diamond	-3823
▁display	-3824
▁dragons	-3825
▁drywall	-3826
▁easiest	-3827
▁falling	-3828
▁feeding	-3829
▁focused	-3830
▁ganache	-3831
▁improve	-3832
▁instead	-3833
▁kitchen	-3834
▁lifting	-3835
▁loosely	-3836
▁minimum	-3837
▁mixture	-3838
▁noticed	-3839
▁organic	-3840
▁perhaps	-3841
▁perpend	-3842
▁picking	-3843
▁pimples	-3844
▁program	-3845
▁punches	-3846
▁pushing	-3847
▁reading	-3848
▁reasons	-3849
▁reptile	-3850
▁results	-3851
▁rocking	-3852
▁rounded	-3853
▁routine	-3854
▁scratch	-3855
▁shampoo	-3856
▁stained	-3857
▁stomach	-3858
▁strikes	-3859
▁tanning	-3860
▁tension	-3861
▁threads	-3862
▁touched	-3863
▁umbrell	-3864
▁variety	-3865
▁various	-3866
▁vintage	-3867
▁visible	-3868
▁washing	-3869
▁worried	-3870
▁written	-3871
▁Michelle	-3872
▁applying	-3873
▁approach	-3874
▁backside	-3875
▁bacteria	-3876
▁changing	-3877
▁crackers	-3878
▁decision	-3879
▁designed	-3880
▁detector	-3881
▁dialogue	-3882
▁electric	-3883
▁extended	-3884
▁feelings	-3885
▁happened	-3886
▁hardness	-3887
▁hardware	-3888
▁identify	-3889
▁involved	-3890
▁lighting	-3891
▁maintain	-3892
▁mechanic	-3893
▁murderer	-3894
▁original	-3895
▁patterns	-3896
▁physical	-3897
▁positive	-3898
▁postures	-3899
▁printing	-3900
▁separate	-3901
▁shopping	-3902
▁shredded	-3903
▁thousand	-3904
▁warranty	-3905
▁advantage	-3906
▁afternoon	-3907
▁assistant	-3908
▁beginning	-3909
▁bracelets	-3910
▁calculate	-3911
▁cardboard	-3912
▁cleansing	-3913
▁confident	-3914
▁efficient	-3915
▁excellent	-3916
▁fantastic	-3917
▁generally	-3918
▁hydrating	-3919
▁influence	-3920
▁materials	-3921
▁mushrooms	-3922
▁ourselves	-3923
▁potential	-3924
▁protected	-3925
▁structure	-3926
▁terminals	-3927
▁varieties	-3928
▁completing	-3929
▁conditions	-3930
▁eventually	-3931
▁ingredient	-3932
▁millimeter	-3933
▁straighten	-3934
▁themselves	-3935
▁volleyball	-3936
▁competitive	-3937
▁complicated	-3938
▁conditioning	-3939
▁manufacturer	-3940
▁perpendicular	-3941
/4	-3942
0'	-3943
11	-3944
40	-3945
AM	-3946
CD	-3947
Ch	-3948
LE	-3949
Re	-3950
TO	-3951
ik	-3952
su	-3953
uh	-3954
ux	-3955
vy	-3956
wy	-3957
▁Z	-3958
Can	-3959
Pro	-3960
See	-3961
Set	-3962
She	-3963
Two	-3964
acc	-3965
ael	-3966
aky	-3967
alp	-3968
ami	-3969
ane	-3970
arb	-3971
ask	-3972
bed	-3973
bee	-3974
boy	-3975
bur	-3976
elt	-3977
emy	-3978
eri	-3979
erm	-3980
esh	-3981
ets	-3982
ett	-3983
exp	-3984
fer	-3985
for	-3986
gyp	-3987
hor	-3988
ini	-3989
lex	-3990
lls	-3991
mat	-3992
ney	-3993
nna	-3994
nos	-3995
nts	-3996
odd	-3997
ogy	-3998
ola	-3999
ole	-4000
olk	-4001
oma	-4002
omb	-4003
ony	-4004
par	-4005
pen	-4006
pos	-4007
rid	-4008
ros	-4009
rup	-4010
tah	-4011
uan	-4012
ugg	-4013
vas	-4014
yes	-4015
zes	-4016
▁12	-4017
▁19	-4018
▁35	-4019
▁4,	-4020
▁Am	-4021
▁Bl	-4022
▁Eu	-4023
▁Fa	-4024
▁Is	-4025
▁To	-4026
▁aw	-4027
▁et	-4028
▁fa	-4029
▁ge	-4030
▁hu	-4031
....	-4032
Step	-4033
Take	-4034
Very	-4035
Your	-4036
adas	-4037
ager	-4038
agne	-4039
agus	-4040
aker	-4041
alif	-4042
alon	-4043
amel	-4044
anut	-4045
apps	-4046
ared	-4047
asty	-4048
aven	-4049
avig	-4050
chil	-4051
coat	-4052
coln	-4053
crow	-4054
ebra	-4055
eech	-4056
elly	-4057
ench	-4058
eric	-4059
ette	-4060
form	-4061
gage	-4062
gypt	-4063
hips	-4064
hold	-4065
ians	-4066
ibly	-4067
icks	-4068
idue	-4069
imid	-4070
inct	-4071
inet	-4072
isco	-4073
ital	-4074
itas	-4075
itor	-4076
lers	-4077
lied	-4078
load	-4079
mail	-4080
mend	-4081
mill	-4082
mune	-4083
nels	-4084
ommy	-4085
oors	-4086
oost	-4087
poon	-4088
pril	-4089
rian	-4090
ries	-4091
roat	-4092
rome	-4093
ryst	-4094
tuce	-4095
uary	-4096
uick	-4097
uing	-4098
uish	-4099
ulpt	-4100
unge	-4101
ylon	-4102
▁180	-4103
▁Ash	-4104
▁Com	-4105
▁Dep	-4106
▁Got	-4107
▁Its	-4108
▁Low	-4109
▁Mal	-4110
▁Pet	-4111
▁Put	-4112
▁Rep	-4113
▁Sch	-4114
▁Try	-4115
▁Yes	-4116
▁ach	-4117
▁arc	-4118
▁cel	-4119
▁cin	-4120
▁cyl	-4121
▁den	-4122
▁exc	-4123
▁fix	-4124
▁fly	-4125
▁gap	-4126
▁gel	-4127
▁gum	-4128
▁hyp	-4129
▁inh	-4130
▁jaw	-4131
▁joy	-4132
▁lic	-4133
▁mis	-4134
▁nar	-4135
▁rib	-4136
▁rom	-4137
▁rul	-4138
▁sex	-4139
▁sus	-4140
▁syn	-4141
▁tab	-4142
▁tax	-4143
▁tub	-4144
▁tuc	-4145
▁uns	-4146
▁van	-4147
▁yet	-4148
▁zap	-4149
Whate	-4150
Which	-4151
acity	-4152
acked	-4153
addle	-4154
allel	-4155
amele	-4156
antic	-4157
antly	-4158
apple	-4159
asted	-4160
atory	-4161
atula	-4162
bling	-4163
ching	-4164
clock	-4165
cotch	-4166
eline	-4167
ental	-4168
ewart	-4169
ibles	-4170
ician	-4171
ified	-4172
iliar	-4173
ilies	-4174
iners	-4175
iques	-4176
ittle	-4177
ivity	-4178
ketch	-4179
laces	-4180
namon	-4181
night	-4182
nosis	-4183
olves	-4184
oring	-4185
ornia	-4186
oxide	-4187
phone	-4188
raise	-4189
rible	-4190
rical	-4191
rican	-4192
strum	-4193
swing	-4194
ucent	-4195
ucers	-4196
ullet	-4197
uries	-4198
ustry	-4199
▁Even	-4200
▁Find	-4201
▁Fire	-4202
▁Fris	-4203
▁From	-4204
▁Gina	-4205
▁Half	-4206
▁Jeff	-4207
▁Juan	-4208
▁King	-4209
▁Kyle	-4210
▁Lift	-4211
▁Like	-4212
▁Many	-4213
▁Mass	-4214
▁Nice	-4215
▁Open	-4216
▁Pull	-4217
▁Roll	-4218
▁Same	-4219
▁Serv	-4220
▁Stud	-4221
▁Sund	-4222
▁Utah	-4223
▁Very	-4224
▁Wing	-4225
▁York	-4226
▁acne	-4227
▁ages	-4228
▁anti	-4229
▁arch	-4230
▁aver	-4231
▁bake	-4232
▁beat	-4233
▁bind	-4234
▁bite	-4235
▁boot	-4236
▁boss	-4237
▁brew	-4238
▁brid	-4239
▁calm	-4240
▁cock	-4241
▁cord	-4242
▁cran	-4243
▁craw	-4244
▁craz	-4245
▁curl	-4246
▁dest	-4247
▁dice	-4248
▁donâ	-4249
▁duck	-4250
▁east	-4251
▁eats	-4252
▁elev	-4253
▁feed	-4254
▁foil	-4255
▁fool	-4256
▁fork	-4257
▁frog	-4258
▁gain	-4259
▁gels	-4260
▁grad	-4261
▁gust	-4262
▁held	-4263
▁herb	-4264
▁hill	-4265
▁hist	-4266
▁hops	-4267
▁hors	-4268
▁intr	-4269
▁jail	-4270
▁jerk	-4271
▁laid	-4272
▁late	-4273
▁lazy	-4274
▁lung	-4275
▁melt	-4276
▁mile	-4277
▁mini	-4278
▁mood	-4279
▁nutr	-4280
▁oral	-4281
▁outs	-4282
▁padd	-4283
▁pads	-4284
▁pare	-4285
▁park	-4286
▁pong	-4287
▁pred	-4288
▁putt	-4289
▁quad	-4290
▁repl	-4291
▁reps	-4292
▁rose	-4293
▁sale	-4294
▁scen	-4295
▁seam	-4296
▁sick	-4297
▁sink	-4298
▁site	-4299
▁sits	-4300
▁sold	-4301
▁stem	-4302
▁swim	-4303
▁tear	-4304
▁tile	-4305
▁told	-4306
▁torn	-4307
▁trap	-4308
▁trop	-4309
▁unit	-4310
▁vest	-4311
▁wand	-4312
▁wasn	-4313
▁wave	-4314
▁wavy	-4315
▁west	-4316
▁whip	-4317
▁wipe	-4318
Before	-4319
During	-4320
abetes	-4321
acters	-4322
ainted	-4323
angles	-4324
arsley	-4325
atives	-4326
icking	-4327
igning	-4328
inkles	-4329
isting	-4330
marine	-4331
ocking	-4332
ologue	-4333
othing	-4334
ourage	-4335
ration	-4336
rology	-4337
rought	-4338
semble	-4339
ternet	-4340
urance	-4341
utionz	-4342
vision	-4343
▁Again	-4344
▁April	-4345
▁Belly	-4346
▁Bruni	-4347
▁Calif	-4348
▁Canad	-4349
▁Carol	-4350
▁Clock	-4351
▁Egypt	-4352
▁Faith	-4353
▁Green	-4354
▁Place	-4355
▁Pract	-4356
▁Tommy	-4357
▁Which	-4358
▁alive	-4359
▁alter	-4360
▁apple	-4361
▁aroma	-4362
▁asked	-4363
▁aspar	-4364
▁aware	-4365
▁bases	-4366
▁beach	-4367
▁beads	-4368
▁beans	-4369
▁bears	-4370
▁bloom	-4371
▁bolts	-4372
▁boost	-4373
▁brain	-4374
▁brand	-4375
▁brass	-4376
▁canoe	-4377
▁categ	-4378
▁champ	-4379
▁const	-4380
▁crank	-4381
▁crust	-4382
▁cryst	-4383
▁cubes	-4384
▁datab	-4385
▁delic	-4386
▁dirty	-4387
▁drawn	-4388
▁dried	-4389
▁enemy	-4390
▁equal	-4391
▁falls	-4392
▁flies	-4393
▁float	-4394
▁flute	-4395
▁games	-4396
▁gonna	-4397
▁grout	-4398
▁grown	-4399
▁guess	-4400
▁inexp	-4401
▁initi	-4402
▁joint	-4403
▁judge	-4404
▁jumps	-4405
▁kinda	-4406
▁label	-4407
▁laugh	-4408
▁legal	-4409
▁lemon	-4410
▁lined	-4411
▁liner	-4412
▁lives	-4413
▁loops	-4414
▁lunge	-4415
▁males	-4416
▁marks	-4417
▁micro	-4418
▁miner	-4419
▁minor	-4420
▁mixed	-4421
▁moved	-4422
▁multi	-4423
▁navig	-4424
▁north	-4425
▁nylon	-4426
▁occur	-4427
▁older	-4428
▁opens	-4429
▁phase	-4430
▁plank	-4431
▁poker	-4432
▁prote	-4433
▁range	-4434
▁recre	-4435
▁rings	-4436
▁rocks	-4437
▁rolls	-4438
▁salon	-4439
▁satur	-4440
▁scall	-4441
▁scalp	-4442
▁scrub	-4443
▁sense	-4444
▁sewer	-4445
▁shelf	-4446
▁shift	-4447
▁shine	-4448
▁sided	-4449
▁south	-4450
▁spill	-4451
▁staff	-4452
▁stays	-4453
▁stock	-4454
▁tanks	-4455
▁tells	-4456
▁trace	-4457
▁trail	-4458
▁tries	-4459
▁walks	-4460
▁waste	-4461
▁waves	-4462
▁weeks	-4463
▁woods	-4464
▁youth	-4465
Shuffle	-4466
chnapps	-4467
ctually	-4468
duction	-4469
erences	-4470
install	-4471
itional	-4472
itrogen	-4473
mendous	-4474
mentary	-4475
ography	-4476
tenance	-4477
▁Before	-4478
▁Boomer	-4479
▁Doctor	-4480
▁Double	-4481
▁Easter	-4482
▁action	-4483
▁actors	-4484
▁adults	-4485
▁advice	-4486
▁afford	-4487
▁animal	-4488
▁ankles	-4489
▁anyway	-4490
▁appear	-4491
▁author	-4492
▁basics	-4493
▁border	-4494
▁brakes	-4495
▁breaks	-4496
▁broken	-4497
▁bucket	-4498
▁bullet	-4499
▁carbon	-4500
▁carrot	-4501
▁carton	-4502
▁caught	-4503
▁caused	-4504
▁celery	-4505
▁chosen	-4506
▁closer	-4507
▁cookie	-4508
▁crease	-4509
▁crunch	-4510
▁custom	-4511
▁dinner	-4512
▁dispos	-4513
▁divide	-4514
▁doctor	-4515
▁doesnâ	-4516
▁drills	-4517
▁eighth	-4518
▁eleven	-4519
▁enchil	-4520
▁engage	-4521
▁escape	-4522
▁evenly	-4523
▁faults	-4524
▁finely	-4525
▁floral	-4526
▁formal	-4527
▁format	-4528
▁freeze	-4529
▁gallon	-4530
▁gentle	-4531
▁graham	-4532
▁hairst	-4533
▁handed	-4534
▁immedi	-4535
▁immune	-4536
▁insert	-4537
▁intake	-4538
▁interf	-4539
▁invest	-4540
▁juices	-4541
▁lenses	-4542
▁letter	-4543
▁levels	-4544
▁lifted	-4545
▁looser	-4546
▁manage	-4547
▁marine	-4548
▁member	-4549
▁microw	-4550
▁mother	-4551
▁narrow	-4552
▁nature	-4553
▁nearby	-4554
▁nobody	-4555
▁offers	-4556
▁offset	-4557
▁online	-4558
▁option	-4559
▁passes	-4560
▁peanut	-4561
▁portal	-4562
▁potato	-4563
▁pounds	-4564
▁pricey	-4565
▁pushed	-4566
▁rather	-4567
▁rating	-4568
▁report	-4569
▁rescue	-4570
▁respir	-4571
▁rounds	-4572
▁salmon	-4573
▁screen	-4574
▁sculpt	-4575
▁serves	-4576
▁sheets	-4577
▁silver	-4578
▁sizing	-4579
▁sketch	-4580
▁skinny	-4581
▁sleeve	-4582
▁slower	-4583
▁smells	-4584
▁sparks	-4585
▁speech	-4586
▁splash	-4587
▁stable	-4588
▁stains	-4589
▁sticky	-4590
▁stones	-4591
▁stream	-4592
▁tattoo	-4593
▁threat	-4594
▁throat	-4595
▁throws	-4596
▁treble	-4597
▁tucked	-4598
▁visual	-4599
▁washed	-4600
▁wheels	-4601
▁window	-4602
Whatever	-4603
ameleons	-4604
andasana	-4605
ationary	-4606
enerally	-4607
omething	-4608
pecially	-4609
ulations	-4610
▁Captain	-4611
▁Frisbee	-4612
▁Lincoln	-4613
▁Service	-4614
▁Squeeze	-4615
▁Stewart	-4616
▁ability	-4617
▁achieve	-4618
▁anybody	-4619
▁anymore	-4620
▁aspects	-4621
▁average	-4622
▁backing	-4623
▁bedroom	-4624
▁bending	-4625
▁blended	-4626
▁blender	-4627
▁bottles	-4628
▁bracket	-4629
▁breaths	-4630
▁briefly	-4631
▁brought	-4632
▁brushed	-4633
▁cabinet	-4634
▁choices	-4635
▁cleaner	-4636
▁clothes	-4637
▁compete	-4638
▁complex	-4639
▁complim	-4640
▁congest	-4641
▁costume	-4642
▁country	-4643
▁creates	-4644
▁damaged	-4645
▁dealing	-4646
▁denture	-4647
▁depends	-4648
▁designs	-4649
▁dropped	-4650
▁elastic	-4651
▁evening	-4652
▁examine	-4653
▁extreme	-4654
▁feature	-4655
▁females	-4656
▁finally	-4657
▁fishing	-4658
▁fitness	-4659
▁fitting	-4660
▁flatter	-4661
▁flowing	-4662
▁garment	-4663
▁golfers	-4664
▁growing	-4665
▁halfway	-4666
▁hearing	-4667
▁himself	-4668
▁include	-4669
▁instrum	-4670
▁intimid	-4671
▁jumping	-4672
▁landing	-4673
▁leather	-4674
▁leaving	-4675
▁lettuce	-4676
▁machine	-4677
▁martini	-4678
▁mustard	-4679
▁noodles	-4680
▁objects	-4681
▁offense	-4682
▁options	-4683
▁package	-4684
▁parents	-4685
▁passing	-4686
▁pendant	-4687
▁peppers	-4688
▁percent	-4689
▁placing	-4690
▁potting	-4691
▁presses	-4692
▁primary	-4693
▁printed	-4694
▁produce	-4695
▁provide	-4696
▁publish	-4697
▁quicker	-4698
▁reality	-4699
▁redness	-4700
▁renting	-4701
▁replace	-4702
▁residue	-4703
▁respond	-4704
▁respons	-4705
▁saucers	-4706
▁scissor	-4707
▁scoring	-4708
▁service	-4709
▁serving	-4710
▁shaking	-4711
▁sixteen	-4712
▁sources	-4713
▁spatula	-4714
▁staying	-4715
▁styling	-4716
▁suggest	-4717
▁surgery	-4718
▁tissues	-4719
▁touches	-4720
▁tracing	-4721
▁trainer	-4722
▁tucking	-4723
▁typical	-4724
▁vitamin	-4725
▁weather	-4726
▁wrapped	-4727
▁writing	-4728
Typically	-4729
terscotch	-4730
▁allowing	-4731
▁although	-4732
▁anchored	-4733
▁athletic	-4734
▁backbone	-4735
▁birthday	-4736
▁breeding	-4737
▁carrying	-4738
▁category	-4739
▁centered	-4740
▁checking	-4741
▁cinnamon	-4742
▁coloring	-4743
▁combined	-4744
▁commonly	-4745
▁concerns	-4746
▁contrast	-4747
▁cylinder	-4748
▁decorate	-4749
▁diameter	-4750
▁distract	-4751
▁eggplant	-4752
▁entirely	-4753
▁external	-4754
▁floating	-4755
▁footwork	-4756
▁friendly	-4757
▁grabbing	-4758
▁homework	-4759
▁hypnosis	-4760
▁industry	-4761
▁instruct	-4762
▁involves	-4763
▁irritate	-4764
▁mortgage	-4765
▁mountain	-4766
▁neighbor	-4767
▁opponent	-4768
▁overcome	-4769
▁overhead	-4770
▁parallel	-4771
▁planning	-4772
▁pointing	-4773
▁politics	-4774
▁possibly	-4775
▁princess	-4776
▁projects	-4777
▁purposes	-4778
▁referred	-4779
▁relative	-4780
▁required	-4781
▁response	-4782
▁segments	-4783
▁smelling	-4784
▁somewhat	-4785
▁steeping	-4786
▁stepping	-4787
▁sticking	-4788
▁stroller	-4789
▁students	-4790
▁teaching	-4791
▁tomatoes	-4792
▁transfer	-4793
▁umbrella	-4794
▁unicycle	-4795
▁Solutionz	-4796
▁abdominal	-4797
▁adaptable	-4798
▁asparagus	-4799
▁backswing	-4800
▁batteries	-4801
▁carpenter	-4802
▁champagne	-4803
▁chemicals	-4804
▁community	-4805
▁concerned	-4806
▁connected	-4807
▁cranberry	-4808
▁dimension	-4809
▁directors	-4810
▁dribbling	-4811
▁essential	-4812
▁expensive	-4813
▁explained	-4814
▁eyelashes	-4815
▁finishing	-4816
▁gardening	-4817
▁guideline	-4818
▁interview	-4819
▁introduce	-4820
▁literally	-4821
▁mechanism	-4822
▁monologue	-4823
▁mouthpiec	-4824
▁movements	-4825
▁naturally	-4826
▁necessary	-4827
▁necklaces	-4828
▁nutrients	-4829
▁otherwise	-4830
▁physician	-4831
▁pineapple	-4832
▁positions	-4833
▁procedure	-4834
▁rectangle	-4835
▁reinstall	-4836
▁saturated	-4837
▁sensitive	-4838
▁soldering	-4839
▁specialty	-4840
▁stability	-4841
▁statement	-4842
▁submarine	-4843
▁substance	-4844
▁sweetness	-4845
▁synthetic	-4846
▁telephone	-4847
▁telescope	-4848
▁therapist	-4849
▁undercoat	-4850
▁utilizing	-4851
▁variation	-4852
▁wolverine	-4853
▁California	-4854
▁afterwards	-4855
▁attachment	-4856
▁beneficial	-4857
▁characters	-4858
▁compromise	-4859
▁confidence	-4860
▁constantly	-4861
▁counteract	-4862
▁definition	-4863
▁dimensions	-4864
▁enchiladas	-4865
▁everywhere	-4866
▁granulated	-4867
▁guidelines	-4868
▁impression	-4869
▁installing	-4870
▁medication	-4871
▁perception	-4872
▁represents	-4873
▁springtime	-4874
▁stationary	-4875
▁stretching	-4876
▁television	-4877
▁tremendous	-4878
▁accessories	-4879
▁convertible	-4880
▁immediately	-4881
▁inexpensive	-4882
▁ingredients	-4883
▁linebackers	-4884
▁maintenance	-4885
▁personality	-4886
▁traditional	-4887
▁translucent	-4888
▁construction	-4889
▁instructions	-4890
▁moisturizing	-4891
▁psychologist	-4892
▁videographer	-4893
▁demonstration	-4894
▁relationships	-4895
-8	-4896
IS	-4897
lu	-4898
000	-4899
-2	-4900
3.	-4901
DA	-4902
FA	-4903
US	-4904
VD	-4905
VP	-4906
ga	-4907
sl	-4908
▁0	-4909
ELL	-4910
HAM	-4911
Int	-4912
KER	-4913
SFA	-4914
ado	-4915
aft	-4916
amm	-4917
ano	-4918
azz	-4919
bac	-4920
bby	-4921
efs	-4922
eur	-4923
gae	-4924
got	-4925
gov	-4926
gum	-4927
ica	-4928
iew	-4929
irm	-4930
ius	-4931
lay	-4932
lon	-4933
lua	-4934
meg	-4935
oke	-4936
ptu	-4937
puc	-4938
put	-4939
roc	-4940
sey	-4941
ury	-4942
uty	-4943
wit	-4944
xic	-4945
▁$1	-4946
▁30	-4947
▁80	-4948
▁9,	-4949
▁BT	-4950
▁Di	-4951
▁Sy	-4952
▁ep	-4953
Both	-4954
CKER	-4955
Comm	-4956
Feet	-4957
Have	-4958
Hold	-4959
Lift	-4960
Many	-4961
aler	-4962
alse	-4963
alve	-4964
amic	-4965
anot	-4966
arah	-4967
arsh	-4968
aunt	-4969
aura	-4970
aust	-4971
bits	-4972
ceed	-4973
cino	-4974
echn	-4975
ects	-4976
edia	-4977
edic	-4978
enna	-4979
exic	-4980
gant	-4981
gars	-4982
gged	-4983
grad	-4984
here	-4985
home	-4986
iami	-4987
icro	-4988
ilic	-4989
imin	-4990
land	-4991
lvis	-4992
mall	-4993
nant	-4994
ndar	-4995
ngue	-4996
njoy	-4997
note	-4998
olks	-4999
AY	-5000
EN	-5001
Es	-5002
HE	-5003
IR	-5004
Un	-5005
dh	-5006
ky	-5007
ta	-5008
ya	-5009
Abs	-5010
Are	-5011
Red	-5012
ama	-5013
iln	-5014
ior	-5015
olf	-5016
ram	-5017
▁40	-5018
▁By	-5019
▁Of	-5020
Look	-5021
Teri	-5022
etts	-5023
imus	-5024
ison	-5025
lear	-5026
llip	-5027
olly	-5028
oman	-5029
ongr	-5030
orkn	-5031
orms	-5032
orse	-5033
osph	-5034
phas	-5035
pler	-5036
pray	-5037
quis	-5038
ribe	-5039
rior	-5040
roic	-5041
rots	-5042
shot	-5043
tips	-5044
ture	-5045
uals	-5046
uddh	-5047
urse	-5048
utes	-5049
veen	-5050
wich	-5051
xels	-5052
ynam	-5053
▁1-8	-5054
▁10,	-5055
▁200	-5056
▁3/4	-5057
▁350	-5058
▁720	-5059
▁AVP	-5060
▁Art	-5061
▁Ber	-5062
▁DVD	-5063
▁Des	-5064
▁Exp	-5065
▁Gar	-5066
▁Guy	-5067
▁Her	-5068
▁Ind	-5069
▁JOE	-5070
▁Kah	-5071
▁Lor	-5072
▁OCD	-5073
▁Oct	-5074
▁Res	-5075
▁Son	-5076
▁Vor	-5077
▁ade	-5078
▁agg	-5079
▁aid	-5080
▁bey	-5081
▁cha	-5082
▁cil	-5083
▁del	-5084
▁due	-5085
▁faj	-5086
▁fau	-5087
▁fra	-5088
▁hem	-5089
▁ign	-5090
▁moh	-5091
▁mov	-5092
▁nin	-5093
▁pie	-5094
▁thr	-5095
▁unw	-5096
▁ver	-5097
Check	-5098
Doing	-5099
By	-5100
ci	-5101
ma	-5102
mi	-5103
of	-5104
pe	-5105
▁.	-5106
▁x	-5107
Sec	-5108
ees	-5109
oud	-5110
pin	-5111
▁Af	-5112
▁ag	-5113
▁uh	-5114
bell	-5115
born	-5116
esan	-5117
iley	-5118
illa	-5119
ivel	-5120
▁Jan	-5121
▁Jim	-5122
▁Rob	-5123
▁Scr	-5124
▁Sil	-5125
▁mad	-5126
▁reh	-5127
▁tin	-5128
▁web	-5129
Girls	-5130
Maybe	-5131
RAHAM	-5132
Those	-5133
acock	-5134
aders	-5135
adill	-5136
aging	-5137
ailey	-5138
allow	-5139
annah	-5140
antro	-5141
arant	-5142
ardro	-5143
asion	-5144
avity	-5145
bacco	-5146
bench	-5147
click	-5148
cover	-5149
ducer	-5150
enade	-5151
esome	-5152
field	-5153
hears	-5154
ibson	-5155
icier	-5156
iency	-5157
imate	-5158
itude	-5159
ivate	-5160
lcome	-5161
leave	-5162
mails	-5163
nding	-5164
obson	-5165
odile	-5166
ombie	-5167
oogle	-5168
ooked	-5169
orize	-5170
paste	-5171
plane	-5172
plish	-5173
reeze	-5174
rency	-5175
shirt	-5176
thest	-5177
thony	-5178
uzzle	-5179
vided	-5180
worms	-5181
▁100%	-5182
▁Arts	-5183
▁Back	-5184
▁Barb	-5185
▁Choo	-5186
▁Coll	-5187
▁Croc	-5188
▁Draw	-5189
▁Drop	-5190
▁Euro	-5191
▁Gips	-5192
▁Hand	-5193
▁Have	-5194
▁John	-5195
▁Lind	-5196
▁Moon	-5197
▁Prom	-5198
▁Repe	-5199
IE	-5200
IL	-5201
Up	-5202
bl	-5203
JOE	-5204
abs	-5205
ani	-5206
edy	-5207
egr	-5208
gee	-5209
mit	-5210
non	-5211
pit	-5212
rel	-5213
▁Me	-5214
▁ba	-5215
▁lb	-5216
ched	-5217
door	-5218
zard	-5219
▁5."	-5220
▁Add	-5221
▁BTI	-5222
▁Dix	-5223
▁arr	-5224
▁bon	-5225
▁fer	-5226
▁gen	-5227
▁har	-5228
▁hon	-5229
▁pod	-5230
▁swe	-5231
aniel	-5232
enery	-5233
hance	-5234
otted	-5235
▁Four	-5236
▁Rach	-5237
▁Russ	-5238
▁Salt	-5239
▁Stan	-5240
▁Such	-5241
▁Swit	-5242
▁Todd	-5243
▁USFA	-5244
▁Ward	-5245
▁Work	-5246
▁Yeah	-5247
▁Yoga	-5248
▁anal	-5249
▁asks	-5250
▁bead	-5251
▁bean	-5252
▁bold	-5253
▁boun	-5254
▁buck	-5255
▁bust	-5256
▁cats	-5257
▁chec	-5258
▁chew	-5259
▁crab	-5260
▁cycl	-5261
▁data	-5262
▁deny	-5263
▁desc	-5264
▁dich	-5265
▁dict	-5266
▁dips	-5267
▁drum	-5268
▁dura	-5269
▁earr	-5270
▁ease	-5271
▁emer	-5272
▁emot	-5273
▁encl	-5274
▁eval	-5275
▁exec	-5276
▁felt	-5277
▁fert	-5278
▁firm	-5279
▁fits	-5280
▁flav	-5281
▁flou	-5282
▁fuse	-5283
▁gard	-5284
▁gour	-5285
▁grav	-5286
▁gymn	-5287
▁halo	-5288
▁hick	-5289
▁hire	-5290
▁huge	-5291
▁insp	-5292
▁jawf	-5293
▁jobs	-5294
▁join	-5295
▁jour	-5296
▁knew	-5297
▁lats	-5298
▁loud	-5299
py	-5300
rs	-5301
Cre	-5302
arn	-5303
bul	-5304
how	-5305
iff	-5306
ipt	-5307
rip	-5308
ulg	-5309
▁AA	-5310
▁Ty	-5311
acqu	-5312
apes	-5313
ffer	-5314
five	-5315
mate	-5316
obby	-5317
rent	-5318
roup	-5319
stop	-5320
user	-5321
▁Mot	-5322
▁cue	-5323
▁map	-5324
cause	-5325
ifies	-5326
ister	-5327
orous	-5328
point	-5329
print	-5330
▁Bulg	-5331
▁Look	-5332
▁berm	-5333
▁died	-5334
▁dise	-5335
▁drip	-5336
▁hall	-5337
▁kiln	-5338
▁leak	-5339
▁luck	-5340
▁mast	-5341
▁meal	-5342
▁meas	-5343
▁mesh	-5344
▁neat	-5345
▁oval	-5346
▁paid	-5347
▁pers	-5348
▁plum	-5349
▁pods	-5350
▁pool	-5351
▁pops	-5352
▁pork	-5353
▁prog	-5354
▁rear	-5355
▁rese	-5356
▁rins	-5357
▁risk	-5358
▁rows	-5359
▁ruff	-5360
▁ruin	-5361
▁rust	-5362
▁sail	-5363
▁sake	-5364
▁semi	-5365
▁sent	-5366
▁sess	-5367
▁sizz	-5368
▁snug	-5369
▁soap	-5370
▁spar	-5371
▁spro	-5372
▁stab	-5373
▁star	-5374
▁stor	-5375
▁teas	-5376
▁toys	-5377
▁trig	-5378
▁tugg	-5379
▁tune	-5380
▁turt	-5381
▁unif	-5382
▁veil	-5383
▁vert	-5384
▁view	-5385
▁went	-5386
▁whis	-5387
▁whoo	-5388
▁wins	-5389
▁wise	-5390
▁wond	-5391
▁yarn	-5392
▁zero	-5393
Anyway	-5394
Commun	-5395
Create	-5396
Notice	-5397
Number	-5398
People	-5399
acy	-5400
eya	-5401
roy	-5402
uis	-5403
▁AM	-5404
▁Fu	-5405
Same	-5406
aria	-5407
rass	-5408
umes	-5409
west	-5410
▁AMA	-5411
▁Set	-5412
▁Tra	-5413
▁bun	-5414
▁nil	-5415
▁pun	-5416
▁rum	-5417
▁vol	-5418
glass	-5419
istle	-5420
oured	-5421
paper	-5422
uchin	-5423
uller	-5424
▁Chap	-5425
▁City	-5426
▁Ivan	-5427
▁Keya	-5428
▁Mult	-5429
▁cell	-5430
▁flop	-5431
▁hasn	-5432
▁hose	-5433
▁lime	-5434
▁nine	-5435
▁parm	-5436
▁prec	-5437
▁rate	-5438
▁runs	-5439
▁tast	-5440
▁tray	-5441
Really	-5442
Second	-5443
action	-5444
alwood	-5445
anding	-5446
anotyp	-5447
ansion	-5448
atform	-5449
athlon	-5450
cealer	-5451
charge	-5452
ctuary	-5453
eather	-5454
egrate	-5455
enails	-5456
ercial	-5457
ervous	-5458
essica	-5459
ftware	-5460
idence	-5461
ifying	-5462
igator	-5463
ilizer	-5464
inally	-5465
inning	-5466
istics	-5467
itaire	-5468
length	-5469
liques	-5470
lywood	-5471
mostat	-5472
nected	-5473
ording	-5474
orknob	-5475
ortion	-5476
ounter	-5477
reitas	-5478
ribute	-5479
romptu	-5480
rosion	-5481
stream	-5482
usetts	-5483
ushing	-5484
weight	-5485
▁2,000	-5486
▁After	-5487
▁Algae	-5488
▁Asian	-5489
▁Bruce	-5490
▁Cause	-5491
▁Child	-5492
▁Daily	-5493
▁Depot	-5494
▁Enjoy	-5495
▁Franc	-5496
▁Girls	-5497
▁Going	-5498
▁Group	-5499
hi	-5500
)."	-5501
Bel	-5502
Try	-5503
reg	-5504
uls	-5505
▁BO	-5506
▁Mc	-5507
▁Oh	-5508
▁Su	-5509
emen	-5510
icip	-5511
izer	-5512
otic	-5513
ured	-5514
▁Men	-5515
▁ven	-5516
▁wig	-5517
Small	-5518
Think	-5519
alian	-5520
ander	-5521
based	-5522
ooler	-5523
ptoms	-5524
thern	-5525
▁Kung	-5526
▁Lake	-5527
▁aces	-5528
▁bump	-5529
▁cale	-5530
▁corn	-5531
▁dump	-5532
▁quit	-5533
▁slap	-5534
icroso	-5535
keting	-5536
▁Buddh	-5537
▁Holly	-5538
▁James	-5539
▁Large	-5540
▁Laura	-5541
▁Madar	-5542
▁Mexic	-5543
▁Miami	-5544
▁Nizza	-5545
▁Nurse	-5546
▁Point	-5547
▁Quick	-5548
▁Sarah	-5549
▁Sayer	-5550
▁Scrub	-5551
▁Sonia	-5552
▁Stars	-5553
▁Techn	-5554
▁Think	-5555
▁Thumb	-5556
▁Tight	-5557
▁Touch	-5558
▁Under	-5559
▁Valve	-5560
▁Watch	-5561
▁Woman	-5562
▁adequ	-5563
▁alarm	-5564
▁antib	-5565
▁antif	-5566
▁arced	-5567
▁argum	-5568
▁armor	-5569
▁award	-5570
▁basin	-5571
▁beats	-5572
▁bites	-5573
▁blast	-5574
▁blind	-5575
▁boots	-5576
▁bould	-5577
▁boxer	-5578
▁brief	-5579
▁brows	-5580
▁calip	-5581
▁calls	-5582
▁cheap	-5583
▁chose	-5584
▁click	-5585
▁combo	-5586
▁cooks	-5587
▁coord	-5588
▁costs	-5589
▁crazy	-5590
▁curly	-5591
▁debit	-5592
▁decoy	-5593
▁dedic	-5594
▁depos	-5595
▁depth	-5596
▁dolls	-5597
▁doors	-5598
▁dryer	-5599
app	-5600
ogn	-5601
ona	-5602
▁Co	-5603
▁La	-5604
agon	-5605
alty	-5606
care	-5607
ired	-5608
okay	-5609
perf	-5610
ulty	-5611
▁Lee	-5612
▁Lou	-5613
▁Tar	-5614
▁aim	-5615
▁rob	-5616
▁sky	-5617
▁ult	-5618
▁une	-5619
anies	-5620
athon	-5621
ended	-5622
erous	-5623
inish	-5624
ising	-5625
iving	-5626
leton	-5627
ortal	-5628
▁Home	-5629
▁Know	-5630
▁arts	-5631
▁bare	-5632
▁clog	-5633
▁cush	-5634
▁dors	-5635
▁grit	-5636
▁hint	-5637
▁host	-5638
▁pist	-5639
▁scra	-5640
▁wish	-5641
ducing	-5642
fortun	-5643
irring	-5644
verted	-5645
▁China	-5646
▁Dance	-5647
▁Speed	-5648
▁Start	-5649
▁adult	-5650
▁cakes	-5651
▁disab	-5652
▁dorsi	-5653
▁dynam	-5654
▁eaves	-5655
▁email	-5656
▁essay	-5657
▁examp	-5658
▁faces	-5659
▁false	-5660
▁fills	-5661
▁finds	-5662
▁finer	-5663
▁flaky	-5664
▁fleas	-5665
▁folds	-5666
▁folks	-5667
▁forty	-5668
▁frequ	-5669
▁fully	-5670
▁gotta	-5671
▁greas	-5672
▁grows	-5673
▁habit	-5674
▁harsh	-5675
▁hedge	-5676
▁henna	-5677
▁hobby	-5678
▁hotel	-5679
▁human	-5680
▁humor	-5681
▁hurry	-5682
▁inhib	-5683
▁input	-5684
▁inser	-5685
▁knead	-5686
▁knock	-5687
▁latch	-5688
▁leaks	-5689
▁ledge	-5690
▁limit	-5691
▁loses	-5692
▁lungs	-5693
▁magic	-5694
▁masks	-5695
▁media	-5696
▁meets	-5697
▁meter	-5698
▁mixer	-5699
▁,	-5700
rud	-5701
avid	-5702
elli	-5703
kend	-5704
nail	-5705
rase	-5706
rate	-5707
▁"""	-5708
▁70'	-5709
▁Kle	-5710
▁Les	-5711
▁Nor	-5712
▁Nut	-5713
▁Pre	-5714
▁fib	-5715
▁ker	-5716
▁ple	-5717
getic	-5718
gnant	-5719
laugh	-5720
watch	-5721
▁Evan	-5722
▁Hair	-5723
▁Kind	-5724
▁Move	-5725
▁Part	-5726
▁Pose	-5727
▁Wind	-5728
▁cult	-5729
▁duty	-5730
▁fail	-5731
▁mine	-5732
▁pens	-5733
Though	-5734
ellent	-5735
ensity	-5736
ertain	-5737
immers	-5738
inated	-5739
utions	-5740
▁Kelli	-5741
▁Other	-5742
▁creep	-5743
▁earth	-5744
▁haven	-5745
▁locks	-5746
▁mohee	-5747
▁mouse	-5748
▁movie	-5749
▁mulch	-5750
▁munch	-5751
▁nasty	-5752
▁newer	-5753
▁nicks	-5754
▁noise	-5755
▁olive	-5756
▁orbit	-5757
▁ornam	-5758
▁ought	-5759
▁palms	-5760
▁patch	-5761
▁plays	-5762
▁porta	-5763
▁poses	-5764
▁posts	-5765
▁potty	-5766
▁prone	-5767
▁proof	-5768
▁putts	-5769
▁putty	-5770
▁quads	-5771
▁quilt	-5772
▁rehab	-5773
▁resin	-5774
▁rooms	-5775
▁roots	-5776
▁ropes	-5777
▁rough	-5778
▁rules	-5779
▁saved	-5780
▁scare	-5781
▁scary	-5782
▁schem	-5783
▁seams	-5784
▁seats	-5785
▁seeds	-5786
▁shade	-5787
▁shaft	-5788
▁shiny	-5789
▁shirt	-5790
▁shown	-5791
▁shrub	-5792
▁signs	-5793
▁sixty	-5794
▁skate	-5795
▁slant	-5796
▁slate	-5797
▁smart	-5798
▁smash	-5799
▁25	-5800
Hope	-5801
▁Ste	-5802
▁err	-5803
▁jar	-5804
▁vib	-5805
▁poor	-5806
▁puff	-5807
▁pump	-5808
▁North	-5809
▁smear	-5810
▁smith	-5811
▁snout	-5812
▁sorts	-5813
▁spect	-5814
▁split	-5815
▁stack	-5816
▁stamp	-5817
▁steak	-5818
▁study	-5819
▁subsc	-5820
▁suits	-5821
▁sunny	-5822
▁swell	-5823
▁taper	-5824
▁thatâ	-5825
▁theme	-5826
▁timed	-5827
▁torso	-5828
▁tough	-5829
▁trade	-5830
▁trout	-5831
▁truck	-5832
▁untie	-5833
▁upset	-5834
▁urine	-5835
▁vents	-5836
▁visit	-5837
▁walls	-5838
▁wedge	-5839
▁weeds	-5840
▁weren	-5841
▁woman	-5842
▁wrote	-5843
▁yours	-5844
▁zebra	-5845
Usually	-5846
ardrobe	-5847
atering	-5848
cingles	-5849
colored	-5850
comfort	-5851
ersonal	-5852
gesture	-5853
hydrate	-5854
icating	-5855
ificant	-5856
inguish	-5857
issimus	-5858
itively	-5859
itivity	-5860
lection	-5861
lements	-5862
llipops	-5863
olesale	-5864
pective	-5865
phasize	-5866
puccino	-5867
ression	-5868
ressive	-5869
riculum	-5870
ription	-5871
ulating	-5872
zerland	-5873
▁Around	-5874
▁Ashley	-5875
▁Bailey	-5876
▁Bibles	-5877
▁Brayer	-5878
▁Cheers	-5879
▁Cooler	-5880
▁Daniel	-5881
▁Dating	-5882
▁Design	-5883
▁French	-5884
▁GRAHAM	-5885
▁Garden	-5886
▁Gibson	-5887
▁Gipson	-5888
▁Hannah	-5889
▁Having	-5890
▁Jackie	-5891
▁Kahlua	-5892
▁Little	-5893
▁Muller	-5894
▁Notice	-5895
▁Office	-5896
▁People	-5897
▁Portal	-5898
▁Repeat	-5899
▁School	-5900
▁Silver	-5901
▁Studio	-5902
▁Sundae	-5903
▁Vorrac	-5904
▁affili	-5905
▁attain	-5906
▁barrel	-5907
▁became	-5908
▁behalf	-5909
▁behavi	-5910
▁beyond	-5911
▁bleach	-5912
▁boxers	-5913
▁bridge	-5914
▁browns	-5915
▁bubble	-5916
▁buckle	-5917
▁buffer	-5918
▁canola	-5919
▁canvas	-5920
▁carpet	-5921
▁cavity	-5922
▁charge	-5923
▁chrome	-5924
▁circum	-5925
▁closet	-5926
▁compos	-5927
▁constr	-5928
▁conven	-5929
▁couldn	-5930
▁covers	-5931
▁cowboy	-5932
▁cracks	-5933
▁curled	-5934
▁curler	-5935
▁dancer	-5936
▁darker	-5937
▁decade	-5938
▁defend	-5939
▁device	-5940
▁devote	-5941
▁dishes	-5942
▁dosing	-5943
▁driven	-5944
▁earthy	-5945
▁eating	-5946
▁elimin	-5947
▁enamel	-5948
▁enjoys	-5949
▁equals	-5950
▁eraser	-5951
▁estate	-5952
▁except	-5953
▁expand	-5954
▁facial	-5955
▁fajita	-5956
▁fasten	-5957
▁female	-5958
▁forced	-5959
▁forces	-5960
▁forgot	-5961
▁fourth	-5962
▁frames	-5963
▁gasket	-5964
▁glutes	-5965
▁greens	-5966
▁growth	-5967
▁guests	-5968
▁hanger	-5969
▁health	-5970
▁herbal	-5971
▁highly	-5972
▁holder	-5973
▁honest	-5974
▁hooked	-5975
▁horses	-5976
▁imperf	-5977
▁improv	-5978
▁infest	-5979
▁intent	-5980
▁intern	-5981
▁jacket	-5982
▁jersey	-5983
▁kayaks	-5984
▁killed	-5985
▁knives	-5986
▁ladder	-5987
▁lashes	-5988
▁lawyer	-5989
▁laying	-5990
▁lesson	-5991
▁liners	-5992
▁locked	-5993
▁losing	-5994
▁lowest	-5995
▁manual	-5996
▁master	-5997
▁mature	-5998
▁monkey	-5999
▁months	-6000
▁movies	-6001
▁muzzle	-6002
▁nearly	-6003
▁needed	-6004
▁ninety	-6005
▁nozzle	-6006
▁nutmeg	-6007
▁paints	-6008
▁passed	-6009
▁pastry	-6010
▁peeled	-6011
▁pelvis	-6012
▁pepper	-6013
▁phones	-6014
▁phrase	-6015
▁pixels	-6016
▁poured	-6017
▁praise	-6018
▁purple	-6019
▁pushes	-6020
▁racket	-6021
▁recogn	-6022
▁regrow	-6023
▁remote	-6024
▁result	-6025
▁retain	-6026
▁review	-6027
▁reward	-6028
▁rights	-6029
▁rugged	-6030
▁saddle	-6031
▁safely	-6032
▁sample	-6033
▁served	-6034
▁server	-6035
▁settle	-6036
▁shaped	-6037
▁shells	-6038
▁shorts	-6039
▁slices	-6040
▁smoked	-6041
▁soccer	-6042
▁soften	-6043
▁source	-6044
▁spaces	-6045
▁spiced	-6046
▁stakes	-6047
▁stamps	-6048
▁stands	-6049
▁states	-6050
▁steady	-6051
▁strain	-6052
▁street	-6053
▁strobe	-6054
▁styles	-6055
▁sugars	-6056
▁suited	-6057
▁summer	-6058
▁swivel	-6059
▁symmet	-6060
▁tables	-6061
▁tailor	-6062
▁tender	-6063
▁thermo	-6064
▁thumbs	-6065
▁treats	-6066
▁triple	-6067
▁trusty	-6068
▁tunnel	-6069
▁turkey	-6070
▁turtle	-6071
▁typing	-6072
▁uneven	-6073
▁unload	-6074
▁unpack	-6075
▁values	-6076
▁vision	-6077
▁washer	-6078
▁waxing	-6079
▁wedges	-6080
▁widely	-6081
▁widths	-6082
▁zombie	-6083
Absolute	-6084
Actually	-6085
Probably	-6086
aranteed	-6087
atically	-6088
ceptible	-6089
ductions	-6090
ensation	-6091
entially	-6092
ertainly	-6093
ervative	-6094
etically	-6095
hearsals	-6096
icrosoft	-6097
mediated	-6098
opyright	-6099
tainment	-6100
▁African	-6101
▁America	-6102
▁Andover	-6103
▁Anthony	-6104
▁Firefly	-6105
▁Indians	-6106
▁Jessica	-6107
▁Johanna	-6108
▁Keeping	-6109
▁Listing	-6110
▁Massach	-6111
▁Michael	-6112
▁October	-6113
▁Parsley	-6114
▁Tighten	-6115
▁Trample	-6116
▁Usually	-6117
▁Welcome	-6118
▁abscess	-6119
▁actions	-6120
▁advance	-6121
▁affects	-6122
▁applied	-6123
▁applies	-6124
▁avoided	-6125
▁awesome	-6126
▁basemen	-6127
▁binding	-6128
▁bladder	-6129
▁boiling	-6130
▁bottoms	-6131
▁brewing	-6132
▁brushes	-6133
▁buttons	-6134
▁calling	-6135
▁causing	-6136
▁centers	-6137
▁ceramic	-6138
▁chances	-6139
▁changed	-6140
▁chaotic	-6141
▁cheaper	-6142
▁checked	-6143
▁chooses	-6144
▁chopped	-6145
▁circles	-6146
▁clearly	-6147
▁climate	-6148
▁closely	-6149
▁closest	-6150
▁colored	-6151
▁compass	-6152
▁consult	-6153
▁content	-6154
▁convent	-6155
▁coolant	-6156
▁cracker	-6157
▁cushion	-6158
▁decided	-6159
▁deliver	-6160
▁destroy	-6161
▁details	-6162
▁devices	-6163
▁digital	-6164
▁distort	-6165
▁dresser	-6166
▁durable	-6167
▁earring	-6168
▁educate	-6169
▁eighths	-6170
▁elegant	-6171
▁elevate	-6172
▁engages	-6173
▁enhance	-6174
▁exhales	-6175
▁farther	-6176
▁fastest	-6177
▁ferment	-6178
▁filling	-6179
▁finding	-6180
▁flavors	-6181
▁forgets	-6182
▁freezer	-6183
▁freezes	-6184
▁funnels	-6185
▁gardens	-6186
▁glasses	-6187
▁gliding	-6188
▁glitter	-6189
▁gourmet	-6190
▁gravity	-6191
▁greatly	-6192
▁hanging	-6193
▁hardest	-6194
▁heating	-6195
▁heavily	-6196
▁herself	-6197
▁hickory	-6198
▁highway	-6199
▁history	-6200
▁hooping	-6201
▁housing	-6202
▁imagine	-6203
▁indoors	-6204
▁inhibit	-6205
▁initial	-6206
▁injured	-6207
▁intense	-6208
▁intrude	-6209
▁jacking	-6210
▁jawfish	-6211
▁juicing	-6212
▁keynote	-6213
▁leading	-6214
▁license	-6215
▁lightly	-6216
▁limited	-6217
▁liqueur	-6218
▁locking	-6219
▁mailbox	-6220
▁markers	-6221
▁martial	-6222
▁masking	-6223
▁matches	-6224
▁medical	-6225
▁mirrors	-6226
▁moments	-6227
▁monitor	-6228
▁motions	-6229
▁mounted	-6230
▁nervous	-6231
▁network	-6232
▁officer	-6233
▁overlap	-6234
▁painted	-6235
▁parting	-6236
▁peacock	-6237
▁penalty	-6238
▁pigment	-6239
▁pigtail	-6240
▁pillows	-6241
▁pitcher	-6242
▁platter	-6243
▁plumber	-6244
▁plywood	-6245
▁popping	-6246
▁powders	-6247
▁prefers	-6248
▁proceed	-6249
▁quietly	-6250
▁reaches	-6251
▁realize	-6252
▁records	-6253
▁related	-6254
▁removed	-6255
▁respect	-6256
▁risking	-6257
▁roasted	-6258
▁rotates	-6259
▁science	-6260
▁secured	-6261
▁selling	-6262
▁serious	-6263
▁session	-6264
▁shadows	-6265
▁shallow	-6266
▁shaving	-6267
▁shouldn	-6268
▁simpler	-6269
▁singles	-6270
▁skipped	-6271
▁sliding	-6272
▁solvent	-6273
▁somehow	-6274
▁spacing	-6275
▁spirits	-6276
▁squared	-6277
▁squares	-6278
▁stacked	-6279
▁stapler	-6280
▁staring	-6281
▁stepped	-6282
▁storage	-6283
▁stripes	-6284
▁studies	-6285
▁stuffed	-6286
▁sweater	-6287
▁tangles	-6288
▁therapy	-6289
▁thicken	-6290
▁tighten	-6291
▁tighter	-6292
▁tipping	-6293
▁tobacco	-6294
▁tonight	-6295
▁trapped	-6296
▁trigger	-6297
▁tugging	-6298
▁undergo	-6299
▁uniform	-6300
▁voltage	-6301
▁weekend	-6302
▁whistle	-6303
▁willing	-6304
▁worries	-6305
Basically	-6306
Generally	-6307
Hopefully	-6308
Otherwise	-6309
Something	-6310
alignment	-6311
connected	-6312
ification	-6313
ilization	-6314
▁Applying	-6315
▁Bulgaria	-6316
▁Canadian	-6317
▁Capuchin	-6318
▁Internet	-6319
▁Multiple	-6320
▁Northern	-6321
▁Software	-6322
▁Standing	-6323
▁acrylics	-6324
▁airplane	-6325
▁approved	-6326
▁backpack	-6327
▁balanced	-6328
▁baseline	-6329
▁basement	-6330
▁beginner	-6331
▁blending	-6332
▁boosters	-6333
▁bracelet	-6334
▁calendar	-6335
▁calories	-6336
▁canoeing	-6337
▁capacity	-6338
▁cheating	-6339
▁cilantro	-6340
▁circular	-6341
▁clippers	-6342
▁cocktail	-6343
▁colander	-6344
▁commands	-6345
▁complain	-6346
▁compress	-6347
▁contacts	-6348
▁crunches	-6349
▁crystals	-6350
▁cultures	-6351
▁currency	-6352
▁cyanotyp	-6353
▁database	-6354
▁deciding	-6355
▁dentures	-6356
▁develops	-6357
▁diabetes	-6358
▁diamonds	-6359
▁dichroic	-6360
▁diffuser	-6361
▁discover	-6362
▁distinct	-6363
▁doorknob	-6364
▁downward	-6365
▁drainage	-6366
▁dumbbell	-6367
▁earrings	-6368
▁examples	-6369
▁exciting	-6370
▁expenses	-6371
▁exposing	-6372
▁exposure	-6373
▁eyeliner	-6374
▁facility	-6375
▁familiar	-6376
▁families	-6377
▁farthest	-6378
▁fashions	-6379
▁features	-6380
▁fighting	-6381
▁flexible	-6382
▁flounder	-6383
▁focusing	-6384
▁football	-6385
▁forehand	-6386
▁foremost	-6387
▁friction	-6388
▁function	-6389
▁garments	-6390
▁graduate	-6391
▁granular	-6392
▁greatest	-6393
▁hangover	-6394
▁headshot	-6395
▁hundreds	-6396
▁improvis	-6397
▁injuries	-6398
▁inspired	-6399
▁intended	-6400
▁invented	-6401
▁isolated	-6402
▁laughter	-6403
▁lowering	-6404
▁marathon	-6405
▁matching	-6406
▁measures	-6407
▁midpoint	-6408
▁minerals	-6409
▁modeling	-6410
▁mulberry	-6411
▁munchies	-6412
▁national	-6413
▁nitrogen	-6414
▁numerous	-6415
▁obliques	-6416
▁organism	-6417
▁packages	-6418
▁paddling	-6419
▁parmesan	-6420
▁patients	-6421
▁pendulum	-6422
▁peroxide	-6423
▁pictures	-6424
▁pinching	-6425
▁planting	-6426
▁platform	-6427
▁portions	-6428
▁potatoes	-6429
▁pregnant	-6430
▁prepared	-6431
▁presence	-6432
▁presents	-6433
▁previous	-6434
▁producer	-6435
▁progress	-6436
▁proteins	-6437
▁realized	-6438
▁removing	-6439
▁reporter	-6440
▁research	-6441
▁romantic	-6442
▁rotation	-6443
▁scallops	-6444
▁schnapps	-6445
▁screwing	-6446
▁securely	-6447
▁selected	-6448
▁sequence	-6449
▁services	-6450
▁shooting	-6451
▁smoothly	-6452
▁solution	-6453
▁spending	-6454
▁sporting	-6455
▁spotting	-6456
▁sprocket	-6457
▁squeegee	-6458
▁stirring	-6459
▁strainer	-6460
▁stressed	-6461
▁supplies	-6462
▁surround	-6463
▁swinging	-6464
▁symptoms	-6465
▁tarleton	-6466
▁teammate	-6467
▁terrible	-6468
▁toenails	-6469
▁tracking	-6470
▁traction	-6471
▁treasure	-6472
▁treating	-6473
▁triangle	-6474
▁tropical	-6475
▁ultimate	-6476
▁vehicles	-6477
▁wardrobe	-6478
▁watering	-6479
▁weighted	-6480
▁wrapping	-6481
▁wrinkles	-6482
Especially	-6483
▁Clockwork	-6484
▁Crocodile	-6485
▁Dandasana	-6486
▁Francisco	-6487
▁Gardening	-6488
▁Hollywood	-6489
▁Microsoft	-6490
▁Promenade	-6491
▁Selection	-6492
▁Speedball	-6493
▁abilities	-6494
▁adjusting	-6495
▁alignment	-6496
▁alligator	-6497
▁alternate	-6498
▁apartment	-6499
▁arguments	-6500
▁beginners	-6501
▁combining	-6502
▁companies	-6503
▁completed	-6504
▁computers	-6505
▁concealer	-6506
▁corporate	-6507
▁corrosion	-6508
▁customers	-6509
▁defensive	-6510
▁designing	-6511
▁detectors	-6512
▁developed	-6513
▁discharge	-6514
▁distances	-6515
▁emphasize	-6516
▁enclosure	-6517
▁encourage	-6518
▁endurance	-6519
▁energetic	-6520
▁exercises	-6521
▁expansion	-6522
▁extensive	-6523
▁extremely	-6524
▁fashioned	-6525
▁favorites	-6526
▁following	-6527
▁functions	-6528
▁geography	-6529
▁hairstyle	-6530
▁household	-6531
▁imaginary	-6532
▁impromptu	-6533
▁increases	-6534
▁indention	-6535
▁infection	-6536
▁installed	-6537
▁integrate	-6538
▁intensity	-6539
▁inventory	-6540
▁lollipops	-6541
▁maintains	-6542
▁marketing	-6543
▁measuring	-6544
▁microwave	-6545
▁miniature	-6546
▁organized	-6547
▁ornaments	-6548
▁outfitter	-6549
▁overnight	-6550
▁perimeter	-6551
▁personnel	-6552
▁practiced	-6553
▁preferred	-6554
▁preparing	-6555
▁professor	-6556
▁receiving	-6557
▁reception	-6558
▁reference	-6559
▁rehydrate	-6560
▁repellent	-6561
▁replacing	-6562
▁represent	-6563
▁rosewater	-6564
▁rotations	-6565
▁sandpaper	-6566
▁scarecrow	-6567
▁scratches	-6568
▁sculpture	-6569
▁sequences	-6570
▁shortstop	-6571
▁smoothing	-6572
▁snowboard	-6573
▁solutions	-6574
▁stimulate	-6575
▁stitching	-6576
▁technical	-6577
▁thousands	-6578
▁traveling	-6579
▁treadmill	-6580
▁triathlon	-6581
▁vibration	-6582
▁waistline	-6583
▁wholesale	-6584
▁workbench	-6585
fortunately	-6586
▁aggressive	-6587
▁antifreeze	-6588
▁background	-6589
▁cappuccino	-6590
▁chameleons	-6591
▁collecting	-6592
▁collection	-6593
▁commercial	-6594
▁complexion	-6595
▁compliment	-6596
▁congestion	-6597
▁consistent	-6598
▁containers	-6599
▁continuing	-6600
▁contribute	-6601
▁curriculum	-6602
▁cyclometer	-6603
▁developing	-6604
▁difficulty	-6605
▁discomfort	-6606
▁discussion	-6607
▁elementary	-6608
▁explaining	-6609
▁formulated	-6610
▁frequently	-6611
▁guaranteed	-6612
▁heartworms	-6613
▁individual	-6614
▁instrument	-6615
▁investment	-6616
▁latissimus	-6617
▁linebacker	-6618
▁operations	-6619
▁preventive	-6620
▁previously	-6621
▁procedures	-6622
▁proportion	-6623
▁protective	-6624
▁psychology	-6625
▁references	-6626
▁rehearsals	-6627
▁relatively	-6628
▁resistance	-6629
▁respirator	-6630
▁sandalwood	-6631
▁sharpening	-6632
▁situations	-6633
▁skateboard	-6634
▁structures	-6635
▁subjective	-6636
▁surcingles	-6637
▁tablespoon	-6638
▁telescopes	-6639
▁thermostat	-6640
▁toothbrush	-6641
▁toothpaste	-6642
▁transition	-6643
▁treatments	-6644
▁undulation	-6645
▁yellowhead	-6646
▁Switzerland	-6647
▁affiliation	-6648
▁challenging	-6649
▁collectible	-6650
▁communicate	-6651
▁concentrate	-6652
▁consistency	-6653
▁contraction	-6654
▁contributed	-6655
▁determining	-6656
▁differences	-6657
▁disposition	-6658
▁distinguish	-6659
▁distributed	-6660
▁effectively	-6661
▁efficiently	-6662
▁electrology	-6663
▁flexibility	-6664
▁individuals	-6665
▁instruction	-6666
▁mouthpieces	-6667
▁permanently	-6668
▁quarterback	-6669
▁recommended	-6670
▁regulations	-6671
▁responsible	-6672
▁restaurants	-6673
▁sensitivity	-6674
▁significant	-6675
▁strengthens	-6676
▁supplements	-6677
▁susceptible	-6678
▁symmetrical	-6679
▁thermograph	-6680
▁thermometer	-6681
▁understands	-6682
Communicating	-6683
▁applications	-6684
▁butterscotch	-6685
▁competitions	-6686
▁concentrated	-6687
▁condensation	-6688
▁conservative	-6689
▁conventional	-6690
▁demonstrated	-6691
▁disabilities	-6692
▁expectations	-6693
▁fermentation	-6694
▁introduction	-6695
▁measurements	-6696
▁presentation	-6697
▁recreational	-6698
▁requirements	-6699
▁Massachusetts	-6700
▁appropriately	-6701
▁communication	-6702
▁concentration	-6703
▁imperfections	-6704
▁international	-6705
▁photographing	-6706
▁reproductions	-6707
▁strengthening	-6708
▁characteristics	-6709
,11	-6710
-10	-6711
/4,	-6712
11,	-6713
AIR	-6714
AND	-6715
ARM	-6716
BEN	-6717
EHE	-6718
ERN	-6719
GER	-6720
ILL	-6721
LES	-6722
LEX	-6723
LLU	-6724
MAR	-6725
RIE	-6726
Spe	-6727
TOP	-6728
fox	-6729
huh	-6730
lta	-6731
ofy	-6732
ohn	-6733
vae	-6734
▁$4	-6735
▁Zo	-6736
-111	-6737
3,11	-6738
711,	-6739
?"",	-6740
AIRE	-6741
ALEX	-6742
AMAN	-6743
ANAY	-6744
ANDR	-6745
CERN	-6746
Draw	-6747
EHEE	-6748
HARM	-6749
ILLH	-6750
Into	-6751
Know	-6752
MARK	-6753
OLLU	-6754
ONIE	-6755
Play	-6756
TOPH	-6757
USAN	-6758
VELL	-6759
WELL	-6760
Wolf	-6761
brae	-6762
cano	-6763
draw	-6764
elux	-6765
etti	-6766
hole	-6767
iece	-6768
irno	-6769
lebr	-6770
mbol	-6771
nois	-6772
oken	-6773
olga	-6774
pegg	-6775
reya	-6776
ridi	-6777
rito	-6778
rupt	-6779
soci	-6780
ssoc	-6781
suas	-6782
unci	-6783
uros	-6784
week	-6785
yram	-6786
▁$15	-6787
▁$4.	-6788
▁(""	-6789
▁03.	-6790
▁197	-6791
▁25%	-6792
▁30-	-6793
▁300	-6794
▁6-2	-6795
▁60'	-6796
▁83.	-6797
▁Atl	-6798
▁BEN	-6799
▁BOS	-6800
▁DeF	-6801
▁Dij	-6802
▁LCD	-6803
▁McL	-6804
▁Spa	-6805
▁Suk	-6806
▁Syv	-6807
▁UIL	-6808
▁Urs	-6809
▁Wik	-6810
▁etc	-6811
▁lye	-6812
▁psi	-6813
▁tux	-6814
▁urn	-6815
"")."	-6816
,3,11	-6817
?""."	-6818
ANDRE	-6819
Begin	-6820
Belts	-6821
Bobby	-6822
CERNI	-6823
CKERS	-6824
EWELL	-6825
Haunt	-6826
Horse	-6827
LAIRE	-6828
Olive	-6829
Shape	-6830
Shift	-6831
Short	-6832
Silic	-6833
absor	-6834
accur	-6835
aloni	-6836
amboy	-6837
ampsh	-6838
apula	-6839
arney	-6840
asino	-6841
brary	-6842
bulbs	-6843
burst	-6844
categ	-6845
cilla	-6846
crowd	-6847
eking	-6848
ereno	-6849
erole	-6850
ffees	-6851
holds	-6852
icola	-6853
iking	-6854
ikram	-6855
iovas	-6856
izona	-6857
likes	-6858
maich	-6859
matod	-6860
mosph	-6861
munog	-6862
ncing	-6863
nuity	-6864
ocado	-6865
ocate	-6866
ocity	-6867
oseng	-6868
ouett	-6869
proof	-6870
rails	-6871
ridge	-6872
ruder	-6873
spray	-6874
stead	-6875
stops	-6876
suits	-6877
ugged	-6878
unias	-6879
urkey	-6880
video	-6881
viral	-6882
zards	-6883
▁(""/	-6884
▁1-87	-6885
▁12."	-6886
▁1972	-6887
▁2007	-6888
▁25%.	-6889
▁40."	-6890
▁45."	-6891
▁5-10	-6892
▁83.9	-6893
▁Alex	-6894
▁Amal	-6895
▁BOSU	-6896
▁Carl	-6897
▁Chef	-6898
▁Figs	-6899
occ	-6900
▁Occ	-6901
ammed	-6902
irmed	-6903
loves	-6904
occan	-6905
onfly	-6906
▁Garb	-6907
▁Garc	-6908
▁Germ	-6909
▁Grab	-6910
▁Guys	-6911
▁Iron	-6912
▁Isra	-6913
▁Jane	-6914
▁KRIE	-6915
▁Lazy	-6916
▁Lesl	-6917
▁Malb	-6918
▁McLe	-6919
▁Meic	-6920
▁Nutt	-6921
▁OKay	-6922
▁Pete	-6923
▁Play	-6924
▁Pops	-6925
▁Prep	-6926
▁Sean	-6927
▁Seto	-6928
▁Syra	-6929
▁Teri	-6930
▁Twin	-6931
▁Walt	-6932
▁Zero	-6933
▁Zoar	-6934
▁aero	-6935
▁auto	-6936
▁bomb	-6937
▁born	-6938
▁bugs	-6939
▁bunn	-6940
▁code	-6941
▁cuis	-6942
▁dewy	-6943
▁etou	-6944
▁evil	-6945
▁fauc	-6946
▁faux	-6947
▁foli	-6948
▁frag	-6949
▁fret	-6950
▁halt	-6951
▁jarg	-6952
▁jazz	-6953
▁labe	-6954
▁mama	-6955
▁mega	-6956
▁oaky	-6957
▁onsl	-6958
▁picn	-6959
▁plex	-6960
▁rapp	-6961
▁roof	-6962
▁silh	-6963
▁spik	-6964
▁susp	-6965
▁task	-6966
▁thru	-6967
▁tube	-6968
▁unlo	-6969
▁valu	-6970
▁wigs	-6971
▁yolk	-6972
8,3,11	-6973
Boomer	-6974
CERNIB	-6975
Chrome	-6976
Gentle	-6977
ICKERS	-6978
Proper	-6979
Seeing	-6980
TOPHER	-6981
Turkey	-6982
Volley	-6983
ablish	-6984
acitor	-6985
acquet	-6986
affing	-6987
agging	-6988
ammock	-6989
appear	-6990
arison	-6991
arrior	-6992
astron	-6993
attack	-6994
braham	-6995
daloni	-6996
drogen	-6997
elsius	-6998
ersbur	-6999
CHE	-7000
CHEL	-7001
bris	-7002
fied	-7003
▁Sew	-7004
CHELP	-7005
Place	-7006
arris	-7007
itley	-7008
keley	-7009
ooley	-7010
osaur	-7011
unkie	-7012
▁Arms	-7013
▁Clim	-7014
▁Pris	-7015
▁bunk	-7016
▁dunk	-7017
▁palp	-7018
▁tort	-7019
Racket	-7020
TCHELP	-7021
adillo	-7022
etails	-7023
gglies	-7024
ghetti	-7025
gorize	-7026
graden	-7027
handed	-7028
hasana	-7029
icians	-7030
iences	-7031
ierrot	-7032
igridi	-7033
ilized	-7034
ingham	-7035
inuing	-7036
iovasc	-7037
ipitas	-7038
irnoff	-7039
isfied	-7040
itique	-7041
izzazz	-7042
maicha	-7043
mmunog	-7044
odding	-7045
ongrat	-7046
orcycl	-7047
oscape	-7048
quests	-7049
racott	-7050
ralian	-7051
reaker	-7052
ridger	-7053
rified	-7054
roding	-7055
scapes	-7056
shalon	-7057
tennis	-7058
tified	-7059
tioned	-7060
udgery	-7061
uisher	-7062
ulsify	-7063
ulsion	-7064
umeric	-7065
unette	-7066
upture	-7067
valash	-7068
valent	-7069
winter	-7070
yramid	-7071
▁1-800	-7072
▁1-877	-7073
▁30-40	-7074
▁83.95	-7075
▁Added	-7076
▁Aging	-7077
▁Anson	-7078
▁BILLH	-7079
▁Blanc	-7080
▁Brian	-7081
▁Buick	-7082
▁COLLU	-7083
▁Camel	-7084
▁Chell	-7085
▁Chris	-7086
▁Chunk	-7087
▁Climb	-7088
▁Coast	-7089
▁Colle	-7090
▁Delux	-7091
▁Dijon	-7092
▁Dixie	-7093
▁Doesn	-7094
▁Drink	-7095
▁Exerc	-7096
▁Gmail	-7097
▁Guide	-7098
▁Holga	-7099
Orig	-7100
Stay	-7101
meal	-7102
suit	-7103
▁15-	-7104
▁150	-7105
GEHEE	-7106
Point	-7107
ascar	-7108
olcar	-7109
phism	-7110
riger	-7111
▁Berl	-7112
▁Fung	-7113
▁Skin	-7114
▁gaps	-7115
▁maps	-7116
CGEHEE	-7117
bohydr	-7118
entler	-7119
ership	-7120
icylic	-7121
strung	-7122
ungent	-7123
▁15-20	-7124
▁Cover	-7125
▁Jonse	-7126
▁Klein	-7127
▁Laure	-7128
▁Linda	-7129
▁Lorwy	-7130
▁Louis	-7131
▁Lower	-7132
▁McDon	-7133
▁Megan	-7134
▁Meicz	-7135
▁Motoc	-7136
▁Nancy	-7137
▁Novie	-7138
▁Pulse	-7139
▁Ranch	-7140
▁Raven	-7141
▁Robot	-7142
▁SUSAN	-7143
▁Schne	-7144
▁Scial	-7145
▁Scott	-7146
▁Sorry	-7147
▁Squat	-7148
▁Studb	-7149
▁Syrah	-7150
▁admit	-7151
▁agent	-7152
▁analy	-7153
▁baked	-7154
▁baker	-7155
▁banch	-7156
▁beaks	-7157
▁bells	-7158
▁boils	-7159
▁bondo	-7160
▁bonel	-7161
▁bonus	-7162
▁boros	-7163
▁bowls	-7164
▁bumpy	-7165
▁burrs	-7166
▁candy	-7167
▁china	-7168
▁chron	-7169
▁clunk	-7170
▁coils	-7171
▁crawl	-7172
▁crema	-7173
▁creme	-7174
▁crime	-7175
▁deadb	-7176
▁devil	-7177
▁dimor	-7178
▁divis	-7179
▁drugs	-7180
▁dumbo	-7181
▁embed	-7182
▁error	-7183
▁estee	-7184
▁estro	-7185
▁etiqu	-7186
▁evalu	-7187
▁faced	-7188
▁flask	-7189
▁floss	-7190
▁freak	-7191
▁fryer	-7192
▁goofy	-7193
▁grays	-7194
▁gusto	-7195
▁inher	-7196
▁lacqu	-7197
▁lamps	-7198
▁laser	-7199
aho	-7200
aws	-7201
daho	-7202
▁Haw	-7203
▁Hey	-7204
ahren	-7205
gency	-7206
ledge	-7207
oseph	-7208
ouled	-7209
ribal	-7210
ribly	-7211
▁Beak	-7212
▁GoTo	-7213
▁Head	-7214
▁Trac	-7215
▁alph	-7216
▁bicy	-7217
▁froz	-7218
▁hilt	-7219
▁menu	-7220
▁succ	-7221
embers	-7222
porary	-7223
sticks	-7224
utiful	-7225
weekly	-7226
▁Being	-7227
▁Canna	-7228
▁David	-7229
▁Hawai	-7230
▁Idaho	-7231
▁Tracy	-7232
▁claws	-7233
▁frizz	-7234
▁leafy	-7235
▁leaps	-7236
▁licor	-7237
▁loads	-7238
▁lopes	-7239
▁melon	-7240
▁monof	-7241
▁mudra	-7242
▁mushy	-7243
▁parka	-7244
▁pedal	-7245
▁peony	-7246
▁pests	-7247
▁piste	-7248
▁plumy	-7249
▁princ	-7250
▁prior	-7251
▁quote	-7252
▁radio	-7253
▁rains	-7254
▁ranch	-7255
▁reefs	-7256
▁revis	-7257
▁rises	-7258
▁roseb	-7259
▁ruler	-7260
▁seatb	-7261
▁sheds	-7262
▁shyer	-7263
▁silic	-7264
▁sixte	-7265
▁smoky	-7266
▁spoke	-7267
▁tacks	-7268
▁taxes	-7269
▁torch	-7270
▁towns	-7271
▁toxic	-7272
▁turtl	-7273
▁unsal	-7274
▁unsuc	-7275
▁venue	-7276
▁vital	-7277
▁volts	-7278
▁whisk	-7279
ALEXSON	-7280
Anybody	-7281
Drawing	-7282
Instead	-7283
Keeping	-7284
Knowing	-7285
Putting	-7286
Release	-7287
adillac	-7288
aghetti	-7289
agonals	-7290
ahrenhe	-7291
alities	-7292
aseline	-7293
athetic	-7294
austion	-7295
avenged	-7296
cinated	-7297
counter	-7298
erengue	-7299
ervo	-7300
ervy	-7301
iums	-7302
▁$1.	-7303
▁1/4	-7304
althy	-7305
arpie	-7306
ervyn	-7307
ology	-7308
topia	-7309
▁$1.9	-7310
▁Only	-7311
▁beds	-7312
▁cube	-7313
▁iceb	-7314
ervoir	-7315
ervyns	-7316
ipedia	-7317
itives	-7318
▁$1.99	-7319
▁bands	-7320
▁biome	-7321
▁concl	-7322
▁fifti	-7323
▁gears	-7324
▁scram	-7325
ersburg	-7326
ference	-7327
gentina	-7328
healthy	-7329
iciency	-7330
icipate	-7331
idences	-7332
iderman	-7333
ilicate	-7334
imental	-7335
inching	-7336
inerary	-7337
inished	-7338
inology	-7339
irouett	-7340
ivities	-7341
lastron	-7342
leading	-7343
leasing	-7344
lebrate	-7345
lending	-7346
lerates	-7347
llicles	-7348
marizes	-7349
matical	-7350
mirnoff	-7351
ologist	-7352
omereno	-7353
omplish	-7354
oroccan	-7355
ouraged	-7356
overing	-7357
owering	-7358
picking	-7359
printed	-7360
reaming	-7361
rentice	-7362
rupting	-7363
ruptive	-7364
stances	-7365
ustrate	-7366
ydrogen	-7367
▁1-800-	-7368
▁Amalia	-7369
▁Animal	-7370
▁BILLHI	-7371
▁Berlin	-7372
▁CLAIRE	-7373
▁Cannon	-7374
▁Comics	-7375
▁Deluxe	-7376
▁Dooley	-7377
▁Frames	-7378
▁France	-7379
▁Garcia	-7380
▁Gloves	-7381
▁Google	-7382
▁Hampsh	-7383
▁Hobson	-7384
▁Holdem	-7385
▁JEWELL	-7386
▁Jonsey	-7387
▁Joseph	-7388
▁Leslie	-7389
▁Lilies	-7390
▁Lindon	-7391
▁Lorwyn	-7392
▁Malbec	-7393
▁Mallon	-7394
▁Mexico	-7395
▁Nobody	-7396
▁Number	-7397
▁Nutrol	-7398
▁Rescue	-7399
From	-7400
kini	-7401
ulio	-7402
▁emb	-7403
reams	-7404
▁2006	-7405
▁Amel	-7406
▁Fold	-7407
▁Reed	-7408
▁empl	-7409
▁solo	-7410
▁void	-7411
elieve	-7412
ontana	-7413
ounced	-7414
▁Julio	-7415
▁Nicky	-7416
▁Where	-7417
▁While	-7418
▁antio	-7419
▁audio	-7420
▁craps	-7421
▁embro	-7422
▁fabul	-7423
▁fades	-7424
▁foams	-7425
▁hurts	-7426
▁penet	-7427
ilizing	-7428
imately	-7429
▁Amelia	-7430
▁Roseng	-7431
▁Shelly	-7432
▁Strass	-7433
▁Sunday	-7434
▁Tattoo	-7435
▁Tribal	-7436
▁Ursula	-7437
▁Volcar	-7438
▁absorb	-7439
▁acquis	-7440
▁advert	-7441
▁americ	-7442
▁anchor	-7443
▁antiox	-7444
▁apiece	-7445
▁armpit	-7446
▁arpegg	-7447
▁arrang	-7448
▁assets	-7449
▁associ	-7450
▁assume	-7451
▁babies	-7452
▁bancha	-7453
▁beaten	-7454
▁bevels	-7455
▁bikini	-7456
▁bladed	-7457
▁blooms	-7458
▁blotch	-7459
▁borrow	-7460
▁braced	-7461
▁breeds	-7462
▁burrow	-7463
▁canopy	-7464
▁casino	-7465
▁cheeks	-7466
▁chewed	-7467
▁circul	-7468
▁clumps	-7469
▁clunky	-7470
▁cooled	-7471
▁cooper	-7472
▁cranks	-7473
▁creepy	-7474
▁debris	-7475
▁denial	-7476
▁dietit	-7477
▁digest	-7478
▁digits	-7479
▁dimple	-7480
▁dreams	-7481
▁effort	-7482
▁eights	-7483
▁emails	-7484
▁employ	-7485
▁errors	-7486
▁esteem	-7487
▁explos	-7488
▁eyelid	-7489
▁feared	-7490
▁fibers	-7491
▁flexed	-7492
▁foiled	-7493
▁fouled	-7494
▁french	-7495
▁frozen	-7496
▁funnel	-7497
▁golfer	-7498
▁grains	-7499
hoe	-7500
sci	-7501
▁6.	-7502
9"",	-7503
azed	-7504
iraz	-7505
▁Toe	-7506
▁Yum	-7507
▁aph	-7508
agues	-7509
ategy	-7510
imano	-7511
scale	-7512
scent	-7513
sciut	-7514
screw	-7515
ymmet	-7516
▁Lime	-7517
▁Mask	-7518
▁fund	-7519
▁john	-7520
ielder	-7521
orship	-7522
squire	-7523
unners	-7524
▁aphid	-7525
▁canna	-7526
▁daugh	-7527
▁globe	-7528
▁index	-7529
▁logos	-7530
▁steer	-7531
▁stomp	-7532
▁tests	-7533
▁verte	-7534
▁woven	-7535
sciutto	-7536
▁""9"",	-7537
▁Shiraz	-7538
▁divers	-7539
▁drives	-7540
▁fevers	-7541
▁firegr	-7542
▁fundam	-7543
▁glazed	-7544
▁greasy	-7545
▁greedy	-7546
▁guards	-7547
▁habits	-7548
▁hazard	-7549
▁hearts	-7550
▁heaven	-7551
▁helmet	-7552
▁hiking	-7553
▁hinges	-7554
▁histor	-7555
▁holler	-7556
▁horser	-7557
▁howler	-7558
▁ignite	-7559
▁imform	-7560
▁includ	-7561
▁indeed	-7562
▁inflat	-7563
▁injury	-7564
▁interp	-7565
▁intros	-7566
▁invite	-7567
▁jammed	-7568
▁jargon	-7569
▁joints	-7570
▁judges	-7571
▁juicer	-7572
▁junkie	-7573
▁kiting	-7574
▁larvae	-7575
▁liquor	-7576
▁locksm	-7577
▁looped	-7578
▁memory	-7579
▁mental	-7580
▁meshes	-7581
▁messed	-7582
▁microp	-7583
▁missed	-7584
▁misted	-7585
▁modify	-7586
▁molded	-7587
▁multim	-7588
▁neuros	-7589
▁noises	-7590
▁nonirr	-7591
▁noodle	-7592
▁outlet	-7593
▁packet	-7594
▁parach	-7595
▁parker	-7596
▁pathog	-7597
▁pedest	-7598
▁picket	-7599
-25	-7600
20.	-7601
nyt	-7602
ysp	-7603
mysp	-7604
nual	-7605
nytz	-7606
oomy	-7607
Lures	-7608
iends	-7609
orney	-7610
usual	-7611
▁$20.	-7612
▁Alan	-7613
▁Dave	-7614
▁badm	-7615
▁budd	-7616
▁retr	-7617
▁visc	-7618
Annual	-7619
Google	-7620
aution	-7621
nytzky	-7622
ooming	-7623
opract	-7624
queeze	-7625
riends	-7626
ucting	-7627
▁20-25	-7628
▁badly	-7629
▁buddy	-7630
▁cools	-7631
▁darks	-7632
▁entry	-7633
▁presc	-7634
▁scene	-7635
▁slots	-7636
▁spots	-7637
▁tempt	-7638
▁zones	-7639
Squeeze	-7640
ectract	-7641
myspace	-7642
ormones	-7643
raction	-7644
▁belted	-7645
▁bonded	-7646
▁darken	-7647
▁gloomy	-7648
▁lessen	-7649
▁phosph	-7650
▁picnic	-7651
▁piling	-7652
▁piston	-7653
▁police	-7654
▁poorly	-7655
▁preser	-7656
▁presid	-7657
▁primer	-7658
▁printm	-7659
▁prints	-7660
▁punish	-7661
▁purses	-7662
▁quarts	-7663
▁quartz	-7664
▁quench	-7665
▁radial	-7666
▁reader	-7667
▁reflex	-7668
▁rental	-7669
▁repeal	-7670
▁repeat	-7671
▁resume	-7672
▁reused	-7673
▁revers	-7674
▁ribbon	-7675
▁ripped	-7676
▁routes	-7677
▁ruined	-7678
▁runoff	-7679
▁sailor	-7680
▁salads	-7681
▁scenes	-7682
▁scragg	-7683
▁setups	-7684
▁shades	-7685
▁shafts	-7686
▁shrunk	-7687
▁silent	-7688
▁silhou	-7689
▁sipped	-7690
▁skiing	-7691
▁spectr	-7692
▁sphere	-7693
▁spirit	-7694
▁spoken	-7695
▁sports	-7696
▁staple	-7697
▁steams	-7698
▁steels	-7699
Sco	-7700
kyl	-7701
Boom	-7702
immy	-7703
oons	-7704
▁Vel	-7705
▁aug	-7706
Scoot	-7707
alons	-7708
grade	-7709
itute	-7710
ropyl	-7711
scope	-7712
uteal	-7713
ylist	-7714
▁18."	-7715
▁Greg	-7716
▁Skyl	-7717
▁Velc	-7718
▁damp	-7719
▁detr	-7720
▁ramp	-7721
▁skyl	-7722
▁tilt	-7723
▁wife	-7724
ceptac	-7725
garine	-7726
grance	-7727
ifully	-7728
inegar	-7729
office	-7730
ronics	-7731
▁Clown	-7732
▁Vines	-7733
▁barra	-7734
▁broom	-7735
▁clamp	-7736
▁hoods	-7737
▁incur	-7738
▁jokes	-7739
▁ridge	-7740
▁spins	-7741
Scooter	-7742
ampions	-7743
leather	-7744
onsense	-7745
opropyl	-7746
▁Clowns	-7747
▁Salons	-7748
▁Shimmy	-7749
▁Velcro	-7750
▁burner	-7751
▁climax	-7752
▁config	-7753
▁insure	-7754
▁stripe	-7755
▁subtle	-7756
▁summon	-7757
▁suspic	-7758
▁swirls	-7759
▁symbol	-7760
▁talent	-7761
▁tasted	-7762
▁tastes	-7763
▁taxing	-7764
▁tempor	-7765
▁territ	-7766
▁therab	-7767
▁toasty	-7768
▁tomato	-7769
▁toners	-7770
▁tongue	-7771
▁trails	-7772
▁unders	-7773
▁unique	-7774
▁unwant	-7775
▁unwind	-7776
▁urging	-7777
▁versat	-7778
▁volume	-7779
▁wading	-7780
▁wallow	-7781
▁whites	-7782
▁writes	-7783
Although	-7784
Blending	-7785
CERNIBLE	-7786
HARMONIE	-7787
ISTOPHER	-7788
Interest	-7789
Nonsense	-7790
Secondly	-7791
Silicone	-7792
Speaking	-7793
ablished	-7794
accurate	-7795
agefully	-7796
allister	-7797
anctuary	-7798
andering	-7799
KIR	-7800
niv	-7801
-1-1	-7802
Anne	-7803
KIRK	-7804
ivan	-7805
pany	-7806
plif	-7807
▁Cho	-7808
▁Chr	-7809
emics	-7810
isode	-7811
ivine	-7812
plain	-7813
▁Lets	-7814
▁avat	-7815
▁bene	-7816
▁camp	-7817
▁redd	-7818
ington	-7819
ircles	-7820
nivore	-7821
▁9-1-1	-7822
▁Check	-7823
▁Chest	-7824
▁calam	-7825
▁camis	-7826
▁campf	-7827
▁choke	-7828
▁eyesh	-7829
▁gromm	-7830
▁jacks	-7831
▁jewel	-7832
▁races	-7833
▁saliv	-7834
▁salut	-7835
▁sleek	-7836
▁whirl	-7837
▁windy	-7838
ademics	-7839
chanics	-7840
mington	-7841
plifier	-7842
▁Andrew	-7843
▁Christ	-7844
▁Divine	-7845
▁Lauren	-7846
▁attics	-7847
▁avatar	-7848
▁comics	-7849
▁county	-7850
▁fallen	-7851
▁hollow	-7852
▁jewels	-7853
▁locate	-7854
▁marked	-7855
▁marver	-7856
▁medial	-7857
▁saliva	-7858
▁somepl	-7859
▁spouse	-7860
arifying	-7861
asserole	-7862
atisfied	-7863
bability	-7864
blooming	-7865
eautiful	-7866
emporary	-7867
endently	-7868
ervation	-7869
esthetic	-7870
forative	-7871
graduate	-7872
ientific	-7873
ilipitas	-7874
inishing	-7875
iropract	-7876
lfriends	-7877
mosphere	-7878
olverine	-7879
omerenov	-7880
onounced	-7881
pathetic	-7882
quential	-7883
quilizer	-7884
rability	-7885
regulate	-7886
ributors	-7887
rynytzky	-7888
strology	-7889
terinary	-7890
uitively	-7891
unciated	-7892
utrition	-7893
velocity	-7894
▁2,000."	-7895
▁Alliums	-7896
▁Andrews	-7897
▁Ansonia	-7898
▁Believe	-7899
goal	-7900
immer	-7901
ipton	-7902
orker	-7903
tened	-7904
▁Asan	-7905
▁Luis	-7906
▁sift	-7907
Simmer	-7908
etters	-7909
isters	-7910
mentia	-7911
onents	-7912
vedere	-7913
▁Agent	-7914
▁South	-7915
▁accum	-7916
▁frogs	-7917
▁loved	-7918
▁masse	-7919
▁purse	-7920
▁rider	-7921
▁safer	-7922
usiness	-7923
▁Asanas	-7924
▁Exhale	-7925
▁Lipton	-7926
▁accord	-7927
▁boxing	-7928
▁carved	-7929
▁cheers	-7930
▁commit	-7931
▁deeply	-7932
▁mixers	-7933
▁scents	-7934
▁simmer	-7935
▁sprink	-7936
▁sprout	-7937
▁winner	-7938
ipetters	-7939
▁Circles	-7940
▁College	-7941
▁Details	-7942
▁Drawing	-7943
▁Esquire	-7944
▁Example	-7945
▁Explain	-7946
▁Firefox	-7947
▁Forward	-7948
▁Framesi	-7949
▁Garbett	-7950
▁Handler	-7951
▁Holding	-7952
▁Immunog	-7953
▁Inverse	-7954
▁Italian	-7955
▁January	-7956
▁Leather	-7957
▁MCGEHEE	-7958
▁McDonal	-7959
▁Mervyns	-7960
▁Mexican	-7961
▁Montana	-7962
▁Noviell	-7963
▁Playing	-7964
▁Pyramid	-7965
▁Rachael	-7966
▁Roberts	-7967
▁Runners	-7968
▁Shampoo	-7969
▁Sharpie	-7970
▁Skyline	-7971
▁Someone	-7972
▁Staging	-7973
▁Tigridi	-7974
▁Whereas	-7975
▁Windham	-7976
▁Windows	-7977
▁absorbs	-7978
▁analyze	-7979
▁annuity	-7980
▁anticip	-7981
▁anytime	-7982
▁arrange	-7983
▁attract	-7984
▁automot	-7985
▁backhoe	-7986
▁baiting	-7987
▁baskets	-7988
▁bathing	-7989
▁batters	-7990
▁beading	-7991
▁bearing	-7992
▁belayer	-7993
▁beneath	-7994
▁bicycle	-7995
▁blacked	-7996
▁blotted	-7997
▁blowout	-7998
▁booster	-7999
Tri	-8000
auv	-8001
dri	-8002
ggy	-8003
abri	-8004
arsE	-8005
auge	-8006
aund	-8007
erri	-8008
laze	-8009
▁6."	-8010
▁Ref	-8011
▁Use	-8012
Trias	-8013
apply	-8014
arsEr	-8015
dosed	-8016
edges	-8017
gging	-8018
iderm	-8019
idery	-8020
ordan	-8021
ordic	-8022
ubric	-8023
▁Sauv	-8024
▁caps	-8025
▁gigs	-8026
▁kits	-8027
▁wonâ	-8028
Little	-8029
abriel	-8030
aundry	-8031
driver	-8032
okemon	-8033
riderm	-8034
▁Kerri	-8035
▁Sales	-8036
▁buggy	-8037
▁capit	-8038
▁carbs	-8039
▁carri	-8040
▁coars	-8041
▁gauge	-8042
▁gicle	-8043
▁grits	-8044
▁herbs	-8045
▁kerat	-8046
▁knits	-8047
▁nosed	-8048
▁thirt	-8049
Forward	-8050
abriela	-8051
icature	-8052
itening	-8053
lectric	-8054
▁Inhale	-8055
▁Jordan	-8056
▁LarsEr	-8057
▁Ledges	-8058
▁Nordic	-8059
▁Stevia	-8060
▁capill	-8061
▁combat	-8062
▁consid	-8063
▁emerge	-8064
▁giclee	-8065
▁lubric	-8066
▁racing	-8067
▁rustic	-8068
▁salary	-8069
applying	-8070
shocking	-8071
ubriderm	-8072
▁Feather	-8073
▁Pokemon	-8074
▁Sauvign	-8075
▁bounced	-8076
▁bounces	-8077
▁braided	-8078
▁breasts	-8079
▁brochet	-8080
▁bunches	-8081
▁bunkers	-8082
▁burning	-8083
▁burrito	-8084
▁cabling	-8085
▁caliper	-8086
▁canapes	-8087
▁capsize	-8088
▁carrots	-8089
▁catcher	-8090
▁catches	-8091
▁caution	-8092
▁clasped	-8093
▁coarsen	-8094
▁coffees	-8095
▁combust	-8096
▁conclud	-8097
▁confine	-8098
▁connois	-8099
oyo	-8100
wea	-8101
angu	-8102
rete	-8103
▁-40	-8104
▁4."	-8105
▁Ann	-8106
▁Opt	-8107
▁Van	-8108
Kisco	-8109
arium	-8110
crete	-8111
etera	-8112
vides	-8113
▁Garz	-8114
▁Tang	-8115
▁ante	-8116
▁evac	-8117
▁gren	-8118
▁mike	-8119
▁yoyo	-8120
▁yuck	-8121
austic	-8122
esides	-8123
inesse	-8124
▁Beach	-8125
▁Kleen	-8126
▁Tango	-8127
▁belay	-8128
▁belie	-8129
▁burst	-8130
▁evacu	-8131
▁greet	-8132
▁irons	-8133
▁langu	-8134
▁pluck	-8135
▁rewea	-8136
▁stead	-8137
▁tuned	-8138
▁yucky	-8139
angular	-8140
ificial	-8141
quarium	-8142
▁Garzon	-8143
▁begins	-8144
▁believ	-8145
▁builds	-8146
▁desire	-8147
▁distur	-8148
▁filing	-8149
▁gargle	-8150
▁grenad	-8151
▁sizzle	-8152
▁warmer	-8153
▁widest	-8154
▁Finesse	-8155
▁Kleenex	-8156
▁Optical	-8157
▁Vanveen	-8158
▁besides	-8159
▁buildup	-8160
▁consume	-8161
▁context	-8162
▁cookies	-8163
▁cottion	-8164
▁courses	-8165
▁cowboys	-8166
▁crazier	-8167
▁current	-8168
▁decides	-8169
▁defused	-8170
▁deglaze	-8171
▁deposit	-8172
▁digging	-8173
▁dipping	-8174
▁dirtier	-8175
▁discard	-8176
▁divided	-8177
▁drilled	-8178
▁dynamic	-8179
▁element	-8180
▁engaged	-8181
▁ensures	-8182
▁evolved	-8183
▁expands	-8184
▁expertv	-8185
▁explode	-8186
▁explore	-8187
▁eyelash	-8188
▁failure	-8189
▁faucets	-8190
▁feather	-8191
▁figures	-8192
▁filters	-8193
▁flamboy	-8194
▁flexors	-8195
▁focuses	-8196
▁folders	-8197
▁folding	-8198
▁foliage	-8199
wax	-8200
▁32	-8201
▁37	-8202
Alas	-8203
anwh	-8204
lete	-8205
▁Boy	-8206
▁Wal	-8207
▁Wil	-8208
Lager	-8209
cling	-8210
graph	-8211
▁Boys	-8212
▁Cows	-8213
▁Hale	-8214
▁Wast	-8215
▁Will	-8216
▁Wood	-8217
▁bias	-8218
▁cows	-8219
▁gumb	-8220
▁mats	-8221
▁pinh	-8222
▁watt	-8223
igraph	-8224
nesses	-8225
ooping	-8226
umbing	-8227
▁Event	-8228
▁Trust	-8229
▁Woods	-8230
▁giant	-8231
▁graph	-8232
▁gumbo	-8233
▁horre	-8234
▁indep	-8235
▁realt	-8236
▁recap	-8237
▁slabs	-8238
▁stats	-8239
▁surve	-8240
Hooping	-8241
anwhite	-8242
ingling	-8243
inkling	-8244
venteen	-8245
▁Events	-8246
▁Inside	-8247
▁Native	-8248
▁Walter	-8249
▁Wastel	-8250
▁Willie	-8251
▁clique	-8252
▁delete	-8253
▁pickup	-8254
▁resale	-8255
▁script	-8256
▁survey	-8257
▁wooden	-8258
ications	-8259
igrapher	-8260
▁Hitting	-8261
▁Shuffle	-8262
▁changes	-8263
▁dusting	-8264
▁foolish	-8265
▁forcing	-8266
▁forearm	-8267
▁forever	-8268
▁formula	-8269
▁fragile	-8270
▁frosted	-8271
▁gentler	-8272
▁gingham	-8273
▁glazing	-8274
▁gluteal	-8275
▁greater	-8276
▁grilled	-8277
▁grinder	-8278
▁grommet	-8279
▁hallway	-8280
▁healing	-8281
▁heights	-8282
▁herbace	-8283
▁hilltop	-8284
▁homeown	-8285
▁hooking	-8286
▁horrend	-8287
▁iGoogle	-8288
▁igniter	-8289
▁implies	-8290
▁inboard	-8291
▁inflamm	-8292
▁insight	-8293
▁inspect	-8294
▁intoxic	-8295
▁invoice	-8296
▁ironing	-8297
▁juicier	-8298
▁justify	-8299
iob	-8300
irds	-8301
obil	-8302
obul	-8303
rope	-8304
vals	-8305
▁unc	-8306
▁unf	-8307
▁zig	-8308
▁zoo	-8309
Birds	-8310
adbur	-8311
alike	-8312
anana	-8313
ancid	-8314
ankly	-8315
ictas	-8316
icted	-8317
ictly	-8318
ictor	-8319
lobul	-8320
obile	-8321
ssoci	-8322
▁Cole	-8323
▁bank	-8324
▁cape	-8325
▁crop	-8326
▁glob	-8327
▁irid	-8328
▁reli	-8329
▁vary	-8330
▁zigz	-8331
▁zill	-8332
adbury	-8333
ancier	-8334
ancing	-8335
haling	-8336
ioball	-8337
▁Brine	-8338
▁Mobil	-8339
▁Punch	-8340
▁buyer	-8341
▁charm	-8342
▁deals	-8343
▁drank	-8344
▁lifts	-8345
▁lunch	-8346
▁meals	-8347
▁pasta	-8348
▁relie	-8349
▁relig	-8350
▁snuff	-8351
▁spank	-8352
▁unfam	-8353
ductors	-8354
ioballs	-8355
lobulin	-8356
▁Associ	-8357
▁Banana	-8358
▁Europe	-8359
▁Rictas	-8360
▁boards	-8361
▁crispy	-8362
▁oldest	-8363
▁perfor	-8364
▁rancid	-8365
▁relief	-8366
▁sleepy	-8367
▁snakes	-8368
▁stored	-8369
▁uncial	-8370
▁zigzag	-8371
Inhaling	-8372
ationals	-8373
▁Brinell	-8374
▁Cadbury	-8375
▁capelet	-8376
▁expense	-8377
▁fancier	-8378
▁frankly	-8379
▁keratin	-8380
▁killing	-8381
▁kneaded	-8382
▁knotted	-8383
▁lacquer	-8384
▁lateral	-8385
▁laundry	-8386
▁leagues	-8387
▁leashes	-8388
▁lengths	-8389
▁lessons	-8390
▁library	-8391
▁located	-8392
▁lowered	-8393
▁mailing	-8394
▁managed	-8395
▁marbles	-8396
▁marking	-8397
▁massive	-8398
▁masters	-8399
Tub	-8400
odo	-8401
sec	-8402
▁6-	-8403
Moms	-8404
Tube	-8405
ardi	-8406
cend	-8407
ctur	-8408
isty	-8409
opre	-8410
rain	-8411
seur	-8412
ucks	-8413
urch	-8414
yard	-8415
▁6-6	-8416
▁Gay	-8417
▁Sea	-8418
▁iod	-8419
acles	-8420
ardon	-8421
cends	-8422
omodo	-8423
oping	-8424
piece	-8425
secut	-8426
▁Jump	-8427
▁ales	-8428
▁amic	-8429
▁chow	-8430
▁hind	-8431
▁lays	-8432
▁note	-8433
▁stur	-8434
acardi	-8435
active	-8436
ardonn	-8437
athers	-8438
oprene	-8439
ouring	-8440
unctur	-8441
▁6-6."	-8442
▁cared	-8443
▁depil	-8444
▁pinna	-8445
▁shoel	-8446
Nothing	-8447
bulizer	-8448
ecember	-8449
feather	-8450
stacles	-8451
▁Barney	-8452
▁Komodo	-8453
▁asking	-8454
▁career	-8455
▁church	-8456
▁feisty	-8457
▁hindqu	-8458
▁iodize	-8459
▁joyful	-8460
▁looked	-8461
▁remedy	-8462
▁rolled	-8463
▁roller	-8464
▁roping	-8465
▁sturdy	-8466
▁warmed	-8467
ardonnay	-8468
secutive	-8469
unchucks	-8470
upunctur	-8471
▁Alexson	-8472
▁Bacardi	-8473
▁Chapter	-8474
▁YouTube	-8475
▁charged	-8476
▁chowder	-8477
▁commode	-8478
▁hurting	-8479
▁mediate	-8480
▁members	-8481
▁microph	-8482
▁mileage	-8483
▁mineral	-8484
▁misting	-8485
▁mortise	-8486
▁mudding	-8487
▁newborn	-8488
▁notched	-8489
▁notices	-8490
▁numeric	-8491
▁offices	-8492
▁opacity	-8493
▁orbital	-8494
▁organiz	-8495
▁origami	-8496
▁packets	-8497
▁paddles	-8498
▁pairing	-8499
eam	-8500
▁Ig	-8501
▁Sl	-8502
More	-8503
acks	-8504
atra	-8505
icil	-8506
illy	-8507
itty	-8508
quit	-8509
that	-8510
▁IgE	-8511
▁Mid	-8512
▁ace	-8513
▁bil	-8514
▁fry	-8515
▁lam	-8516
▁nam	-8517
▁pam	-8518
▁sam	-8519
bones	-8520
illed	-8521
itted	-8522
onesy	-8523
squit	-8524
▁beam	-8525
▁jade	-8526
▁moll	-8527
▁moon	-8528
▁mous	-8529
▁pure	-8530
▁samb	-8531
billed	-8532
eamish	-8533
illips	-8534
irloom	-8535
opatra	-8536
▁Madag	-8537
▁Sicil	-8538
▁Slide	-8539
▁align	-8540
▁fever	-8541
▁guion	-8542
▁kitty	-8543
▁named	-8544
▁orang	-8545
▁outre	-8546
▁prove	-8547
▁racks	-8548
▁reven	-8549
▁salty	-8550
▁samba	-8551
▁silly	-8552
▁spits	-8553
hillips	-8554
squitos	-8555
▁Jonesy	-8556
▁assure	-8557
▁define	-8558
▁fitted	-8559
▁mousse	-8560
▁neighb	-8561
▁orders	-8562
▁pamper	-8563
leopatra	-8564
▁Midwest	-8565
▁aligned	-8566
▁bilater	-8567
▁calming	-8568
▁gearing	-8569
▁molding	-8570
▁mollies	-8571
▁monofil	-8572
▁outdoor	-8573
▁palming	-8574
▁parsley	-8575
▁pathway	-8576
▁patting	-8577
▁peeling	-8578
▁pinning	-8579
▁planner	-8580
▁planted	-8581
▁pockets	-8582
▁pouring	-8583
▁predict	-8584
▁preform	-8585
▁prepaid	-8586
▁prepped	-8587
▁presets	-8588
▁pricier	-8589
▁princip	-8590
▁printer	-8591
▁private	-8592
▁profits	-8593
▁protein	-8594
▁protrud	-8595
▁quadrup	-8596
▁quieted	-8597
▁racquet	-8598
▁readily	-8599
Dec	-8600
LAY	-8601
Soy	-8602
lyn	-8603
ULAY	-8604
arie	-8605
ario	-8606
imet	-8607
indy	-8608
lynn	-8609
ntil	-8610
onde	-8611
rest	-8612
some	-8613
tent	-8614
walk	-8615
▁Sem	-8616
▁ain	-8617
▁hex	-8618
▁kic	-8619
▁kit	-8620
▁mop	-8621
▁ner	-8622
▁sop	-8623
Decor	-8624
Until	-8625
added	-8626
eiled	-8627
upply	-8628
▁Bend	-8629
▁Five	-8630
▁Semi	-8631
▁busy	-8632
▁king	-8633
▁limp	-8634
▁rant	-8635
restle	-8636
▁Cindy	-8637
▁Flynn	-8638
▁Karie	-8639
▁aller	-8640
▁greys	-8641
▁honey	-8642
▁nerve	-8643
▁overp	-8644
▁shout	-8645
▁soaks	-8646
▁tuxed	-8647
imeters	-8648
walking	-8649
▁BOULAY	-8650
▁Veiled	-8651
▁archit	-8652
▁blonde	-8653
▁combos	-8654
▁depart	-8655
▁grinds	-8656
▁headed	-8657
▁kicked	-8658
▁oftent	-8659
▁styled	-8660
▁tuxedo	-8661
▁wadded	-8662
▁Lifting	-8663
▁allergy	-8664
▁bunnies	-8665
▁callers	-8666
▁contour	-8667
▁crooked	-8668
▁ranting	-8669
▁realtor	-8670
▁receipt	-8671
▁reeking	-8672
▁refined	-8673
▁reflect	-8674
▁refresh	-8675
▁regions	-8676
▁regrows	-8677
▁repairs	-8678
▁repeats	-8679
▁resumes	-8680
▁retread	-8681
▁revised	-8682
▁rinsing	-8683
▁robbing	-8684
▁rosebud	-8685
▁rupture	-8686
▁rushing	-8687
▁scapula	-8688
▁scenery	-8689
▁schedul	-8690
▁schemes	-8691
▁schools	-8692
▁scraper	-8693
▁scrunch	-8694
▁sealing	-8695
▁seeping	-8696
▁serrate	-8697
▁shaping	-8698
▁shiners	-8699
mo	-8700
Fur	-8701
Ooh	-8702
Pod	-8703
did	-8704
org	-8705
owd	-8706
ray	-8707
uru	-8708
ainb	-8709
aked	-8710
enig	-8711
lant	-8712
rely	-8713
▁Bur	-8714
▁Eps	-8715
▁Huh	-8716
▁Ree	-8717
Night	-8718
adish	-8719
lying	-8720
oenig	-8721
urray	-8722
▁Dowd	-8723
▁Each	-8724
▁Reef	-8725
▁Ruff	-8726
▁anim	-8727
▁crou	-8728
▁delt	-8729
▁demo	-8730
▁guru	-8731
▁iPod	-8732
▁lens	-8733
▁magg	-8734
▁news	-8735
▁rail	-8736
▁seve	-8737
Nightm	-8738
ainbow	-8739
ealing	-8740
everal	-8741
▁Coach	-8742
▁Cream	-8743
▁Epsom	-8744
▁appet	-8745
▁talks	-8746
▁weare	-8747
▁wells	-8748
Further	-8749
aunting	-8750
ionally	-8751
racotta	-8752
udition	-8753
▁Always	-8754
▁Burger	-8755
▁Koenig	-8756
▁Murray	-8757
▁affair	-8758
▁bitter	-8759
▁crouch	-8760
▁events	-8761
▁lastly	-8762
▁refine	-8763
▁soaked	-8764
▁wearer	-8765
uditions	-8766
ymmetric	-8767
▁Outside	-8768
▁Rainbow	-8769
▁Reptile	-8770
▁Several	-8771
▁VICKERS	-8772
▁animals	-8773
▁crystal	-8774
▁glueing	-8775
▁implant	-8776
▁maggots	-8777
▁pungent	-8778
▁shorten	-8779
▁shutter	-8780
▁signing	-8781
▁sleeves	-8782
▁slicing	-8783
▁smiling	-8784
▁smoking	-8785
▁smooths	-8786
▁snapper	-8787
▁souther	-8788
▁spaders	-8789
▁sparing	-8790
▁sparked	-8791
▁spinach	-8792
▁spooked	-8793
▁sprayed	-8794
▁spreads	-8795
▁squeege	-8796
▁stamped	-8797
▁staples	-8798
▁stringy	-8799
ju	-8800
ala	-8801
eli	-8802
eps	-8803
ftc	-8804
low	-8805
nee	-8806
two	-8807
atal	-8808
bout	-8809
erek	-8810
flow	-8811
icia	-8812
kick	-8813
leep	-8814
topp	-8815
uver	-8816
▁jet	-8817
▁rug	-8818
Clear	-8819
David	-8820
euver	-8821
inant	-8822
juven	-8823
natal	-8824
▁Dean	-8825
▁Down	-8826
▁Knee	-8827
▁bait	-8828
▁coin	-8829
▁rats	-8830
▁ribc	-8831
▁sole	-8832
elicia	-8833
ightly	-8834
otaged	-8835
vering	-8836
▁About	-8837
▁Black	-8838
▁Derek	-8839
▁Lowes	-8840
▁Sleep	-8841
▁beeps	-8842
▁bikes	-8843
▁coinc	-8844
▁files	-8845
▁nicer	-8846
▁sites	-8847
▁tippy	-8848
mulsify	-8849
toppest	-8850
▁choppy	-8851
▁clasps	-8852
▁differ	-8853
▁driver	-8854
▁extrem	-8855
▁living	-8856
▁masala	-8857
▁occurs	-8858
▁scruff	-8859
▁solely	-8860
Emulsify	-8861
Vaseline	-8862
abotaged	-8863
dominant	-8864
▁Felicia	-8865
▁Goodwin	-8866
▁Israeli	-8867
▁minivan	-8868
▁musical	-8869
▁parrots	-8870
▁quadric	-8871
▁rejuven	-8872
▁ribcage	-8873
▁suppose	-8874
▁surfing	-8875
▁swelled	-8876
▁tactics	-8877
▁tactile	-8878
▁tagging	-8879
▁tailors	-8880
▁tainted	-8881
▁talents	-8882
▁tapping	-8883
▁tasting	-8884
▁teacher	-8885
▁teapots	-8886
▁tedious	-8887
▁terrain	-8888
▁testing	-8889
▁thumber	-8890
▁tightly	-8891
▁toilets	-8892
▁topping	-8893
▁topspin	-8894
▁torched	-8895
▁tornado	-8896
▁tortill	-8897
▁touring	-8898
▁trailer	-8899
Im	-8900
ND	-8901
IND	-8902
Pre	-8903
asm	-8904
gly	-8905
iat	-8906
mas	-8907
urp	-8908
▁24	-8909
▁EM	-8910
Imag	-8911
Mind	-8912
issa	-8913
when	-8914
▁244	-8915
▁EMC	-8916
▁alm	-8917
▁cum	-8918
▁las	-8919
▁mac	-8920
INDIS	-8921
edies	-8922
oused	-8923
pring	-8924
uting	-8925
▁244,	-8926
▁Jasm	-8927
▁Liat	-8928
▁Purp	-8929
▁dots	-8930
▁gall	-8931
▁lect	-8932
▁rele	-8933
▁rise	-8934
▁rude	-8935
▁ster	-8936
▁subs	-8937
▁ugly	-8938
▁undo	-8939
Pretty	-8940
elissa	-8941
essert	-8942
oundar	-8943
▁Natur	-8944
▁Salon	-8945
▁Weiss	-8946
▁cumul	-8947
▁flown	-8948
▁lasso	-8949
▁macro	-8950
Imagine	-8951
cements	-8952
ogether	-8953
suasive	-8954
umpling	-8955
▁Barbie	-8956
▁Rachel	-8957
▁Spring	-8958
▁almond	-8959
▁doused	-8960
▁infant	-8961
▁macrob	-8962
▁subsid	-8963
▁wiggle	-8964
existing	-8965
together	-8966
▁Jasmine	-8967
▁Liatris	-8968
▁Melissa	-8969
▁Natural	-8970
▁Purpose	-8971
▁boundar	-8972
▁continu	-8973
▁dessert	-8974
▁gallery	-8975
▁kernels	-8976
▁lecture	-8977
▁macrobi	-8978
▁needing	-8979
▁ringing	-8980
▁species	-8981
▁sterile	-8982
▁subsidy	-8983
▁travels	-8984
▁triceps	-8985
▁tripods	-8986
▁turtlen	-8987
▁twisted	-8988
▁typeset	-8989
▁unusual	-8990
▁upgrade	-8991
▁upwards	-8992
▁urinary	-8993
▁useless	-8994
▁utilize	-8995
▁version	-8996
▁vinegar	-8997
▁warrior	-8998
▁wattage	-8999
Bay	-9000
Pay	-9001
Rot	-9002
cho	-9003
▁au	-9004
Grab	-9005
Over	-9006
atic	-9007
fide	-9008
igid	-9009
▁Ins	-9010
▁abn	-9011
▁alc	-9012
▁fad	-9013
▁twe	-9014
▁weâ	-9015
infor	-9016
iring	-9017
naire	-9018
▁350,	-9019
▁Cail	-9020
▁Echo	-9021
▁Mart	-9022
▁bale	-9023
▁bear	-9024
▁dart	-9025
▁eBay	-9026
▁gage	-9027
▁lash	-9028
▁mall	-9029
Rotate	-9030
atered	-9031
naires	-9032
ulfide	-9033
▁Insom	-9034
▁auger	-9035
▁grabs	-9036
▁mates	-9037
▁revel	-9038
▁rigid	-9039
▁shing	-9040
▁sling	-9041
▁swamp	-9042
▁tweak	-9043
▁wound	-9044
▁abnorm	-9045
▁alcove	-9046
▁hiring	-9047
▁scheme	-9048
▁COLLURA	-9049
▁Martial	-9050
▁fighter	-9051
▁handing	-9052
▁mission	-9053
▁natives	-9054
▁rapport	-9055
▁regener	-9056
▁reinfor	-9057
▁topical	-9058
▁watered	-9059
▁whisper	-9060
▁windows	-9061
▁winging	-9062
▁wonders	-9063
▁wrestle	-9064
▁youngst	-9065
▁zillion	-9066
▁zooming	-9067
Horseback	-9068
Nightmare	-9069
Pandering	-9070
RISTOPHER	-9071
Stability	-9072
ascinated	-9073
asionally	-9074
autionary	-9075
basically	-9076
celerates	-9077
clockwise	-9078
copyright	-9079
ervatives	-9080
etitively	-9081
hematical	-9082
homerenov	-9083
ibilities	-9084
ictionary	-9085
insically	-9086
irouettes	-9087
istically	-9088
learwater	-9089
nutrition	-9090
onsorship	-9091
ontinuing	-9092
orcyclist	-9093
veenbulbs	-9094
weighting	-9095
▁1,8,3,11	-9096
▁Anything	-9097
▁Ashfield	-9098
▁Atlantic	-9099
',	-9100
LO	-9101
Com	-9102
esc	-9103
uke	-9104
akie	-9105
erly	-9106
icus	-9107
iler	-9108
itle	-9109
omen	-9110
rowd	-9111
scar	-9112
stay	-9113
▁BLO	-9114
▁Cos	-9115
▁gir	-9116
▁hal	-9117
▁hey	-9118
▁sag	-9119
▁til	-9120
Women	-9121
arake	-9122
esser	-9123
eturn	-9124
ishes	-9125
opard	-9126
▁Fall	-9127
▁Rich	-9128
▁icon	-9129
▁lamp	-9130
▁luke	-9131
▁matt	-9132
▁nesc	-9133
▁tons	-9134
▁verm	-9135
Coming	-9136
comics	-9137
lacing	-9138
lderly	-9139
mishes	-9140
▁Ficus	-9141
▁Oscar	-9142
▁crowd	-9143
▁facil	-9144
▁fakie	-9145
▁gover	-9146
▁mites	-9147
▁probe	-9148
▁saggy	-9149
▁spiky	-9150
▁teens	-9151
▁title	-9152
Placing	-9153
arakeet	-9154
bearing	-9155
esserts	-9156
▁Cosmet	-9157
▁Return	-9158
▁boiler	-9159
▁brides	-9160
▁candle	-9161
▁govern	-9162
▁halter	-9163
▁laughs	-9164
▁newest	-9165
▁plates	-9166
▁spares	-9167
▁thrown	-9168
▁vermic	-9169
▁wrists	-9170
ylewatch	-9171
▁BLOCKER	-9172
▁Ironing	-9173
▁Richard	-9174
▁appears	-9175
▁elderly	-9176
▁facilit	-9177
▁gymnast	-9178
▁leopard	-9179
▁mediums	-9180
▁tempted	-9181
▁tilting	-9182
Belvedere	-9183
▁Austrian	-9184
▁Berkeley	-9185
▁Blocking	-9186
▁Business	-9187
▁Cadillac	-9188
▁Catering	-9189
▁December	-9190
▁Desserts	-9191
▁Egyptian	-9192
▁Electric	-9193
▁Everyone	-9194
▁Exercise	-9195
▁Gabriela	-9196
▁Hawaiian	-9197
▁Insomnia	-9198
▁McDonald	-9199
/8	-9200
16	-9201
?)	-9202
CA	-9203
EB	-9204
	-9205
▁?	-9206
165	-9207
?)?	-9208
CCA	-9209
Dry	-9210
EBE	-9211
Per	-9212
cur	-9213
ede	-9214
oub	-9215
tra	-9216
Last	-9217
adow	-9218
aner	-9219
curl	-9220
eces	-9221
oubt	-9222
trak	-9223
umin	-9224
▁3/8	-9225
▁Est	-9226
▁aes	-9227
arpen	-9228
ulipe	-9229
▁$4.2	-9230
▁REBE	-9231
▁kiss	-9232
▁lint	-9233
▁wolf	-9234
Dryers	-9235
Lastly	-9236
boxing	-9237
harpen	-9238
inking	-9239
orsing	-9240
prints	-9241
uminum	-9242
▁$4.25	-9243
▁Asana	-9244
▁aesth	-9245
▁baggy	-9246
▁camps	-9247
▁doubt	-9248
▁feces	-9249
▁filth	-9250
▁flesh	-9251
▁occas	-9252
▁secur	-9253
▁suede	-9254
▁valve	-9255
cleaner	-9256
venture	-9257
▁Amtrak	-9258
▁Estate	-9259
▁Tulipe	-9260
▁charms	-9261
▁fuller	-9262
▁learns	-9263
▁trophy	-9264
ximately	-9265
▁Jewelry	-9266
▁REBECCA	-9267
▁badmint	-9268
▁barrage	-9269
▁factors	-9270
▁severed	-9271
▁Meiczing	-9272
▁Moroccan	-9273
▁National	-9274
▁Nitrogen	-9275
▁Parakeet	-9276
▁Phillips	-9277
▁Popsicle	-9278
▁Practice	-9279
▁Rectract	-9280
▁Refriger	-9281
▁Schnapps	-9282
▁Spinning	-9283
▁Starting	-9284
▁Stepping	-9285
▁Studbook	-9286
▁Thinning	-9287
▁Watering	-9288
▁Wellness	-9289
▁Yourself	-9290
▁absorbed	-9291
▁accuracy	-9292
▁activate	-9293
▁activity	-9294
▁adaptive	-9295
▁addicted	-9296
▁additive	-9297
▁adequate	-9298
▁advocate	-9299
'.	-9300
1,	-9301
83	-9302
?!	-9303
Iâ	-9304
Mr	-9305
UK	-9306
YN	-9307
⁄4	-9308
3⁄4	-9309
?!?	-9310
yal	-9311
▁16	-9312
▁4-	-9313
▁Mr	-9314
▁RO	-9315
Down	-9316
LLYN	-9317
oser	-9318
urea	-9319
▁"1,	-9320
▁16,	-9321
▁4-3	-9322
▁Ace	-9323
▁ROY	-9324
▁adh	-9325
ALLYN	-9326
atics	-9327
color	-9328
ennis	-9329
going	-9330
iture	-9331
ooves	-9332
▁1983	-9333
▁Mose	-9334
▁fray	-9335
▁goin	-9336
▁pant	-9337
▁pout	-9338
▁rake	-9339
▁soci	-9340
Tennis	-9341
idants	-9342
ureaus	-9343
▁Mosel	-9344
▁Poser	-9345
▁Tiger	-9346
▁adhes	-9347
▁fists	-9348
▁loyal	-9349
▁mould	-9350
▁sixes	-9351
▁spout	-9352
▁stiff	-9353
▁brassi	-9354
▁irises	-9355
▁rinses	-9356
erencing	-9357
laughing	-9358
urniture	-9359
▁Bureaus	-9360
▁Congrat	-9361
▁Sciales	-9362
▁Setting	-9363
▁agility	-9364
▁defined	-9365
▁grooves	-9366
▁labeled	-9367
▁poutier	-9368
▁removal	-9369
▁society	-9370
▁upscale	-9371
▁workers	-9372
▁Plastron	-9373
▁adhesive	-9374
▁airbrush	-9375
▁alphabet	-9376
▁aluminum	-9377
▁amicable	-9378
▁antibody	-9379
▁appetite	-9380
▁aquarium	-9381
▁arranged	-9382
▁articles	-9383
▁artistic	-9384
▁assemble	-9385
▁athletes	-9386
▁attaches	-9387
▁attitude	-9388
▁attorney	-9389
▁backward	-9390
▁backyard	-9391
▁balloons	-9392
▁behaving	-9393
▁bicycles	-9394
▁bindings	-9395
▁bladders	-9396
▁blinking	-9397
▁blockage	-9398
▁blockers	-9399
3'	-9400
5,	-9401
RY	-9402
Vâ	-9403
ev	-9404
alm	-9405
ggs	-9406
▁Up	-9407
RYAN	-9408
Till	-9409
Xing	-9410
aled	-9411
iday	-9412
inky	-9413
urly	-9414
▁"5,	-9415
▁1/3	-9416
▁Aid	-9417
▁TVâ	-9418
HANAY	-9419
evine	-9420
fting	-9421
iXing	-9422
idesp	-9423
imply	-9424
oting	-9425
riage	-9426
▁East	-9427
▁Eggs	-9428
▁Ginj	-9429
▁Oper	-9430
▁Palm	-9431
▁Push	-9432
▁Sure	-9433
▁bulk	-9434
▁dues	-9435
▁gaze	-9436
▁rook	-9437
▁vein	-9438
▁youn	-9439
SHANAY	-9440
oliday	-9441
ooting	-9442
owning	-9443
stitch	-9444
▁BRYAN	-9445
▁Curly	-9446
▁Ginjo	-9447
▁Light	-9448
▁Opera	-9449
▁Separ	-9450
▁chefs	-9451
▁crush	-9452
▁curls	-9453
▁genie	-9454
▁kinky	-9455
▁miser	-9456
▁torqu	-9457
▁weigh	-9458
dometer	-9459
reasing	-9460
▁Makeup	-9461
▁Simply	-9462
▁YiXing	-9463
▁bother	-9464
▁estrog	-9465
▁poison	-9466
▁porous	-9467
▁resent	-9468
▁rookie	-9469
▁sealed	-9470
▁widesp	-9471
ongruity	-9472
rapevine	-9473
▁Express	-9474
▁Freitas	-9475
▁Shimano	-9476
▁candles	-9477
▁crushed	-9478
▁episode	-9479
▁eyeball	-9480
▁holiday	-9481
▁rafting	-9482
▁seating	-9483
▁tumeric	-9484
▁weekday	-9485
▁younger	-9486
Somewhere	-9487
absorbing	-9488
▁Syvarris	-9489
▁blooming	-9490
▁boulders	-9491
▁bouncing	-9492
▁branches	-9493
▁breading	-9494
▁breakage	-9495
▁breakers	-9496
▁brighten	-9497
▁brownish	-9498
▁brunette	-9499
30	-9500
Bl	-9501
SA	-9502
af	-9503
gl	-9504
ov	-9505
rd	-9506
	-9507
'."	-9508
Did	-9509
SAL	-9510
asa	-9511
oly	-9512
usb	-9513
▁JK	-9514
Blue	-9515
Tool	-9516
drip	-9517
iths	-9518
roll	-9519
rost	-9520
▁130	-9521
▁Non	-9522
▁fid	-9523
▁son	-9524
Union	-9525
arled	-9526
duced	-9527
glare	-9528
opoly	-9529
ypass	-9530
▁Godd	-9531
▁earn	-9532
▁husb	-9533
▁loaf	-9534
▁scan	-9535
inyasa	-9536
narled	-9537
stable	-9538
stones	-9539
▁Malov	-9540
▁clown	-9541
▁hatch	-9542
▁leafs	-9543
▁props	-9544
▁slick	-9545
▁templ	-9546
onopoly	-9547
sembles	-9548
▁Target	-9549
▁bypass	-9550
▁calves	-9551
▁cannon	-9552
▁earned	-9553
▁fidget	-9554
▁parted	-9555
▁plexis	-9556
▁scroll	-9557
▁submit	-9558
ntensive	-9559
▁Goddess	-9560
▁artwork	-9561
▁blinded	-9562
▁breakup	-9563
▁defrost	-9564
▁gnarled	-9565
▁husband	-9566
▁reduced	-9567
▁remnant	-9568
▁vinyasa	-9569
Certainly	-9570
▁Caroling	-9571
▁Monopoly	-9572
▁becoming	-9573
▁calamari	-9574
▁camisole	-9575
▁campfire	-9576
▁campsite	-9577
▁candling	-9578
▁capicola	-9579
▁capitals	-9580
▁carriers	-9581
▁charging	-9582
▁chickens	-9583
▁chopping	-9584
▁circling	-9585
▁claspers	-9586
▁classier	-9587
▁clicking	-9588
▁clipping	-9589
▁coarsely	-9590
▁coconuts	-9591
▁coincide	-9592
▁compared	-9593
▁concepts	-9594
▁concrete	-9595
▁condense	-9596
▁configur	-9597
▁confined	-9598
▁confused	-9599
).	-9600
Um	-9601
Got	-9602
USA	-9603
enn	-9604
oti	-9605
oup	-9606
ynd	-9607
?"""	-9608
Were	-9609
lily	-9610
lite	-9611
make	-9612
ogle	-9613
▁alp	-9614
▁bod	-9615
▁hay	-9616
▁lit	-9617
ators	-9618
blown	-9619
doors	-9620
ennif	-9621
ieves	-9622
ipper	-9623
olism	-9624
roper	-9625
stich	-9626
yndon	-9627
▁Over	-9628
▁cans	-9629
▁dose	-9630
▁lake	-9631
▁muff	-9632
▁sexy	-9633
▁soup	-9634
▁thus	-9635
arlite	-9636
ottoms	-9637
uffier	-9638
▁Spray	-9639
▁hardy	-9640
▁liber	-9641
▁sexes	-9642
▁squad	-9643
Haunted	-9644
abolism	-9645
ennifer	-9646
glasses	-9647
perture	-9648
roperty	-9649
▁Lyndon	-9650
▁Tarnow	-9651
▁alpine	-9652
▁bodice	-9653
▁botton	-9654
▁delive	-9655
▁google	-9656
▁marker	-9657
▁muffin	-9658
▁negoti	-9659
▁sieves	-9660
▁sliced	-9661
▁taping	-9662
ignments	-9663
ointment	-9664
▁Bottoms	-9665
▁Clipper	-9666
▁Sitting	-9667
▁artists	-9668
▁avocado	-9669
▁formats	-9670
▁inherit	-9671
▁liberal	-9672
▁pressed	-9673
▁slender	-9674
▁Jennifer	-9675
▁Property	-9676
▁aperture	-9677
▁bleeding	-9678
▁constric	-9679
▁contrary	-9680
▁cornmeal	-9681
▁counting	-9682
▁crawlers	-9683
▁creasing	-9684
▁crescent	-9685
▁crinkles	-9686
▁critique	-9687
▁crouches	-9688
▁crushing	-9689
▁cuisines	-9690
▁cuttings	-9691
▁darkroom	-9692
▁daughter	-9693
▁daunting	-9694
▁deadbolt	-9695
▁dedicate	-9696
▁delicate	-9697
▁dementia	-9698
▁descents	-9699
NC	-9700
PR	-9701
dm	-9702
uy	-9703
▁[	-9704
Ess	-9705
Our	-9706
▁CH	-9707
Goss	-9708
Push	-9709
cacc	-9710
empt	-9711
outs	-9712
rich	-9713
▁151	-9714
▁Adm	-9715
▁Buy	-9716
▁CPR	-9717
▁Has	-9718
▁JNC	-9719
▁Mix	-9720
▁Sed	-9721
▁pup	-9722
▁vir	-9723
apors	-9724
beans	-9725
eight	-9726
gaine	-9727
hlers	-9728
never	-9729
otics	-9730
▁Chin	-9731
▁DVDs	-9732
▁Hope	-9733
▁Wave	-9734
▁bart	-9735
▁bunt	-9736
▁gram	-9737
▁leve	-9738
▁lump	-9739
▁plea	-9740
▁radi	-9741
▁till	-9742
▁vase	-9743
▁woke	-9744
Gossip	-9745
astics	-9746
caccia	-9747
ogaine	-9748
uckily	-9749
▁Mixed	-9750
▁amber	-9751
▁drama	-9752
▁figur	-9753
▁logic	-9754
▁pursu	-9755
▁scour	-9756
▁share	-9757
▁waxes	-9758
Luckily	-9759
earning	-9760
▁Admiss	-9761
▁Barbar	-9762
▁Ehlers	-9763
▁Sedona	-9764
▁diaper	-9765
▁enrich	-9766
▁peddle	-9767
▁pupill	-9768
▁radios	-9769
▁vapors	-9770
▁virgin	-9771
▁viscos	-9772
Learning	-9773
▁Barbara	-9774
▁Chinese	-9775
▁Rogaine	-9776
▁Warrior	-9777
▁attempt	-9778
▁augered	-9779
▁cockpit	-9780
▁diverse	-9781
▁highest	-9782
▁leveled	-9783
▁nodding	-9784
▁catching	-9785
▁contains	-9786
▁describe	-9787
▁dictated	-9788
▁dinosaur	-9789
▁discount	-9790
▁diseases	-9791
▁disposal	-9792
▁download	-9793
▁drawback	-9794
▁drudgery	-9795
▁dumpling	-9796
▁dynamics	-9797
▁educated	-9798
▁emotions	-9799
;"	-9800
ET	-9801
HD	-9802
OR	-9803
DHD	-9804
Ext	-9805
udy	-9806
▁Wr	-9807
Donâ	-9808
lime	-9809
orso	-9810
▁NOR	-9811
▁Old	-9812
▁PET	-9813
▁PTO	-9814
▁bee	-9815
▁ons	-9816
▁wes	-9817
astry	-9818
ateur	-9819
lance	-9820
reens	-9821
utter	-9822
▁ADHD	-9823
▁Cold	-9824
▁Nine	-9825
▁Rudy	-9826
▁cray	-9827
▁dram	-9828
▁weak	-9829
Extend	-9830
agnant	-9831
▁Freya	-9832
▁Torso	-9833
▁Wrong	-9834
▁fused	-9835
▁groin	-9836
▁hower	-9837
▁notch	-9838
▁reuse	-9839
▁ruins	-9840
▁shark	-9841
▁thise	-9842
alcohol	-9843
fidence	-9844
iftwood	-9845
matodes	-9846
racting	-9847
▁Fungus	-9848
▁Mastry	-9849
▁blower	-9850
▁diving	-9851
▁stages	-9852
▁useful	-9853
▁Anybody	-9854
▁Company	-9855
▁NORVELL	-9856
▁amateur	-9857
▁campers	-9858
▁crayons	-9859
▁defects	-9860
▁flutter	-9861
▁screens	-9862
▁western	-9863
alcoholic	-9864
▁Fahrenhe	-9865
▁chaffing	-9866
▁engineer	-9867
▁ensemble	-9868
▁entering	-9869
▁etcetera	-9870
▁etouffee	-9871
▁evaluate	-9872
▁evidence	-9873
▁exhaling	-9874
▁expected	-9875
▁extruder	-9876
▁facedown	-9877
▁feathers	-9878
▁feedback	-9879
▁fiftieth	-9880
▁figurine	-9881
▁fitments	-9882
▁flicking	-9883
▁fluffier	-9884
▁focaccia	-9885
▁followed	-9886
▁fracture	-9887
▁frosting	-9888
▁frowning	-9889
▁fullback	-9890
▁gardener	-9891
▁geograph	-9892
▁graphite	-9893
▁greasier	-9894
▁greenery	-9895
▁greenish	-9896
▁greeting	-9897
▁grilling	-9898
▁gripping	-9899
hey	-9900
oin	-9901
umn	-9902
▁"[	-9903
▁Jr	-9904
▁na	-9905
Half	-9906
Sing	-9907
amen	-9908
atel	-9909
beat	-9910
hood	-9911
lose	-9912
onze	-9913
▁Ben	-9914
▁Yep	-9915
▁soy	-9916
▁tox	-9917
▁ups	-9918
enile	-9919
icure	-9920
ssips	-9921
tions	-9922
▁Join	-9923
▁Oaks	-9924
▁lure	-9925
▁nois	-9926
▁poet	-9927
▁robe	-9928
▁toll	-9929
▁vote	-9930
Single	-9931
arding	-9932
arters	-9933
season	-9934
▁Linux	-9935
▁Ramen	-9936
▁Zebra	-9937
▁actor	-9938
▁cones	-9939
▁girls	-9940
▁humid	-9941
▁journ	-9942
▁meaty	-9943
▁navel	-9944
▁neare	-9945
▁noisy	-9946
▁smush	-9947
▁tends	-9948
Looking	-9949
uchatel	-9950
▁bronze	-9951
▁column	-9952
▁curdle	-9953
▁forego	-9954
▁lather	-9955
▁loudly	-9956
▁magnum	-9957
▁mating	-9958
▁origin	-9959
▁played	-9960
▁poetry	-9961
▁senile	-9962
▁toxins	-9963
▁worker	-9964
euchatel	-9965
▁Painted	-9966
▁compare	-9967
▁entered	-9968
▁gossips	-9969
▁kidding	-9970
▁looping	-9971
▁nearest	-9972
▁runners	-9973
▁tearing	-9974
striction	-9975
▁Handling	-9976
▁captions	-9977
▁darkened	-9978
▁downbeat	-9979
▁grinding	-9980
▁guarding	-9981
▁hallways	-9982
▁happiest	-9983
▁headache	-9984
▁heirloom	-9985
▁honestly	-9986
▁horrible	-9987
▁horribly	-9988
▁hovering	-9989
▁humanity	-9990
▁humidity	-9991
▁hydrange	-9992
▁hydrated	-9993
▁hydrator	-9994
▁hydrogen	-9995
▁imagined	-9996
▁importer	-9997
▁incorpor	-9998
▁incurred	-9999
▁Â	-10000
""'	-10001
Dep	-10002
Equ	-10003
ret	-10004
▁5.	-10005
ambo	-10006
anit	-10007
arms	-10008
none	-10009
pent	-10010
rees	-10011
want	-10012
▁odd	-10013
▁sor	-10014
Equus	-10015
ament	-10016
being	-10017
gings	-10018
opper	-10019
venty	-10020
▁4/4,	-10021
▁Char	-10022
▁Come	-10023
▁bast	-10024
▁cact	-10025
▁geck	-10026
▁mana	-10027
▁mugs	-10028
▁pith	-10029
▁reed	-10030
▁rich	-10031
Filing	-10032
Making	-10033
▁Farms	-10034
▁blaze	-10035
▁footw	-10036
▁fried	-10037
▁gecko	-10038
▁mambo	-10039
▁preen	-10040
▁retie	-10041
▁sanit	-10042
▁saver	-10043
▁soror	-10044
▁umbil	-10045
▁wagon	-10046
acobson	-10047
ategies	-10048
pentine	-10049
▁Childs	-10050
▁agrees	-10051
▁cactus	-10052
▁copper	-10053
▁fibrou	-10054
▁harbor	-10055
▁income	-10056
▁opened	-10057
▁secret	-10058
▁senses	-10059
▁shakes	-10060
▁touchd	-10061
▁uncles	-10062
▁wrench	-10063
▁BILLHIM	-10064
▁Charles	-10065
▁Seventy	-10066
▁balloon	-10067
▁basting	-10068
▁calcium	-10069
▁convers	-10070
▁fibrous	-10071
▁headach	-10072
▁upright	-10073
Depending	-10074
sometimes	-10075
▁Jacobson	-10076
▁Noviello	-10077
▁Smirnoff	-10078
▁descends	-10079
▁footwear	-10080
▁infirmed	-10081
▁initiate	-10082
▁inserted	-10083
▁internet	-10084
▁interval	-10085
▁iridized	-10086
▁journals	-10087
▁keyboard	-10088
▁kindling	-10089
▁kindness	-10090
▁kitchens	-10091
▁kneading	-10092
▁knitting	-10093
▁knotless	-10094
▁language	-10095
▁leggings	-10096
▁licorice	-10097
▁listener	-10098
▁literary	-10099
bis	-10100
cam	-10101
iph	-10102
lif	-10103
von	-10104
▁14	-10105
▁85	-10106
Dice	-10107
Good	-10108
Nice	-10109
Sand	-10110
Type	-10111
alks	-10112
have	-10113
▁Con	-10114
▁Typ	-10115
▁nip	-10116
uffed	-10117
▁Avon	-10118
▁Ball	-10119
▁Code	-10120
▁Lori	-10121
▁Pigs	-10122
▁exce	-10123
▁hats	-10124
▁ibis	-10125
▁plot	-10126
▁role	-10127
▁spit	-10128
Lately	-10129
camera	-10130
iphany	-10131
lifest	-10132
soever	-10133
▁Janet	-10134
▁chart	-10135
▁chewy	-10136
▁drunk	-10137
▁excel	-10138
▁exter	-10139
▁totem	-10140
estines	-10141
▁Chapel	-10142
▁Collar	-10143
▁antics	-10144
▁cables	-10145
▁consum	-10146
▁cuffed	-10147
▁floats	-10148
▁impact	-10149
▁recent	-10150
▁sander	-10151
▁stalks	-10152
▁themes	-10153
▁coffeem	-10154
▁comfort	-10155
▁heading	-10156
▁meeting	-10157
▁romance	-10158
▁snipped	-10159
▁tossing	-10160
▁turtles	-10161
lifestill	-10162
▁Petunias	-10163
▁consumed	-10164
▁degrease	-10165
▁epiphany	-10166
▁exterior	-10167
▁gymnasts	-10168
▁hurrican	-10169
▁location	-10170
▁loosened	-10171
▁machines	-10172
▁magnetic	-10173
▁majority	-10174
▁makeover	-10175
▁maneuver	-10176
▁manicure	-10177
▁mastered	-10178
▁meanings	-10179
▁measured	-10180
▁medicine	-10181
▁merengue	-10182
▁messages	-10183
▁monoxide	-10184
▁navigate	-10185
▁neckline	-10186
▁neoprene	-10187
▁nescient	-10188
▁nonirrit	-10189
▁noticing	-10190
▁odometer	-10191
▁official	-10192
▁operator	-10193
▁optional	-10194
▁orangish	-10195
▁ordering	-10196
▁organize	-10197
▁outdoors	-10198
▁outlines	-10199
tis	-10200
Five	-10201
Give	-10202
apay	-10203
apon	-10204
odak	-10205
peel	-10206
uner	-10207
▁ADA	-10208
▁Sif	-10209
▁peg	-10210
▁yea	-10211
...."	-10212
atell	-10213
ectal	-10214
▁Kare	-10215
▁Otis	-10216
▁Sifu	-10217
▁Soon	-10218
▁dive	-10219
▁exch	-10220
▁leap	-10221
▁mild	-10222
▁scoo	-10223
▁soak	-10224
apayas	-10225
ilates	-10226
solved	-10227
ssible	-10228
string	-10229
▁Bobby	-10230
▁Chefs	-10231
▁Karen	-10232
▁Kodak	-10233
▁Malib	-10234
▁beers	-10235
▁breed	-10236
▁carve	-10237
▁disag	-10238
▁downs	-10239
▁glide	-10240
▁latte	-10241
▁setup	-10242
▁snack	-10243
▁sniff	-10244
▁spind	-10245
▁thats	-10246
▁waved	-10247
▁woken	-10248
getting	-10249
ossible	-10250
▁Malibu	-10251
▁Spiced	-10252
▁backer	-10253
▁dectal	-10254
▁mounts	-10255
▁opener	-10256
▁orbits	-10257
▁pruner	-10258
▁satell	-10259
▁scoops	-10260
▁sister	-10261
▁squads	-10262
▁weapon	-10263
amstring	-10264
▁Celsius	-10265
▁Pierrot	-10266
▁Pilates	-10267
▁antique	-10268
▁generic	-10269
▁imports	-10270
▁manager	-10271
▁papayas	-10272
▁radiate	-10273
▁Clothing	-10274
▁disagree	-10275
▁drywalls	-10276
▁emulsion	-10277
▁exchange	-10278
▁marriage	-10279
▁neurosis	-10280
▁outreach	-10281
▁outsider	-10282
▁overflow	-10283
▁overlaps	-10284
▁overlook	-10285
▁partners	-10286
▁patience	-10287
▁payments	-10288
▁pearlite	-10289
▁pigments	-10290
▁pinholes	-10291
▁pitching	-10292
▁platters	-10293
▁pleasing	-10294
▁plumbing	-10295
▁pointers	-10296
▁polished	-10297
▁pounding	-10298
▁predator	-10299
Jab	-10300
Tab	-10301
▁CD	-10302
▁Et	-10303
▁XP	-10304
Such	-10305
Walk	-10306
abar	-10307
enth	-10308
ssle	-10309
▁Etc	-10310
▁Fun	-10311
▁Kne	-10312
▁Uno	-10313
▁bum	-10314
▁gun	-10315
▁hul	-10316
▁jab	-10317
▁tee	-10318
▁wun	-10319
oving	-10320
▁Pass	-10321
▁apex	-10322
▁aust	-10323
▁ceil	-10324
▁dine	-10325
▁gate	-10326
▁inks	-10327
▁meow	-10328
▁myst	-10329
▁peon	-10330
▁pros	-10331
▁rand	-10332
▁worn	-10333
Double	-10334
Moving	-10335
atedly	-10336
ionate	-10337
▁Knees	-10338
▁Morse	-10339
▁Ready	-10340
▁Sabar	-10341
▁Steve	-10342
▁brick	-10343
▁detox	-10344
▁meant	-10345
▁spice	-10346
▁steal	-10347
▁timer	-10348
heating	-10349
station	-10350
▁1-877-	-10351
▁Either	-10352
▁Travel	-10353
▁bumper	-10354
▁dryers	-10355
▁evened	-10356
▁hassle	-10357
▁ironed	-10358
▁obtain	-10359
▁pedals	-10360
▁posing	-10361
▁random	-10362
▁runway	-10363
▁slides	-10364
▁timing	-10365
▁Whitley	-10366
▁blotchy	-10367
▁conical	-10368
▁crunchy	-10369
▁disease	-10370
▁hulking	-10371
▁peonies	-10372
▁relaxer	-10373
▁volcano	-10374
▁Trustees	-10375
▁austinst	-10376
▁ceilings	-10377
▁dislikes	-10378
▁mounting	-10379
▁mystical	-10380
▁placemat	-10381
▁prenatal	-10382
▁prevents	-10383
▁provided	-10384
▁provides	-10385
▁punching	-10386
▁purplish	-10387
▁puttying	-10388
▁quarters	-10389
▁reaction	-10390
▁recently	-10391
▁receptac	-10392
▁rehabbed	-10393
▁released	-10394
▁reliable	-10395
▁remedies	-10396
▁reminder	-10397
▁remotely	-10398
▁removers	-10399
▁SA	-10400
step	-10401
wist	-10402
▁Fam	-10403
▁Itâ	-10404
▁Med	-10405
▁Say	-10406
▁jig	-10407
▁sea	-10408
igent	-10409
imize	-10410
ubble	-10411
▁Card	-10412
▁Cats	-10413
▁SATO	-10414
▁brow	-10415
▁cere	-10416
▁clew	-10417
▁hike	-10418
▁seek	-10419
▁Flick	-10420
▁Grass	-10421
▁Twist	-10422
▁Union	-10423
▁chore	-10424
▁cleft	-10425
▁clues	-10426
▁coral	-10427
▁exist	-10428
▁flour	-10429
▁fulls	-10430
▁leans	-10431
▁matte	-10432
▁mural	-10433
▁offer	-10434
▁plugs	-10435
▁solar	-10436
▁stich	-10437
▁worst	-10438
▁Bubble	-10439
▁Family	-10440
▁McLean	-10441
▁Pretty	-10442
▁cereal	-10443
▁counts	-10444
▁curves	-10445
▁expose	-10446
▁fruity	-10447
▁lotion	-10448
▁magnet	-10449
▁rotate	-10450
▁soiled	-10451
▁straws	-10452
▁theore	-10453
elligent	-10454
▁KRIEGER	-10455
▁Medical	-10456
▁batting	-10457
▁century	-10458
▁crosses	-10459
▁journey	-10460
▁knowing	-10461
▁mending	-10462
▁painful	-10463
▁sharpen	-10464
▁theoret	-10465
▁thermal	-10466
Specially	-10467
▁breadbox	-10468
▁calipers	-10469
▁calmness	-10470
▁directed	-10471
▁fabulous	-10472
▁hormones	-10473
▁joystick	-10474
▁minimize	-10475
▁occasion	-10476
▁religion	-10477
▁replaced	-10478
▁requests	-10479
▁resemble	-10480
▁resistor	-10481
▁resolved	-10482
▁retrieve	-10483
▁revenues	-10484
▁reversal	-10485
▁sandwich	-10486
▁sanitary	-10487
▁scallion	-10488
▁scenario	-10489
▁scooting	-10490
▁scraggle	-10491
▁scramble	-10492
▁seatbelt	-10493
▁securing	-10494
▁security	-10495
▁severely	-10496
▁shavings	-10497
▁sheeting	-10498
▁shifting	-10499
Why	-10500
typ	-10501
▁ML	-10502
Even	-10503
anda	-10504
chid	-10505
free	-10506
hull	-10507
type	-10508
▁Bet	-10509
▁Bid	-10510
▁Cla	-10511
▁MLS	-10512
▁Oil	-10513
Class	-10514
Creat	-10515
Water	-10516
treat	-10517
ulite	-10518
▁Bach	-10519
▁Both	-10520
▁Brad	-10521
▁Mold	-10522
▁bass	-10523
▁blot	-10524
▁dull	-10525
▁fond	-10526
▁fung	-10527
▁hemp	-10528
▁perm	-10529
▁puts	-10530
AMANDA	-10531
Around	-10532
olanda	-10533
▁Three	-10534
▁Wings	-10535
▁bland	-10536
▁bumps	-10537
▁cells	-10538
▁coach	-10539
▁coast	-10540
▁drown	-10541
▁eager	-10542
▁flush	-10543
▁humus	-10544
▁ideal	-10545
▁kneel	-10546
▁latex	-10547
▁liven	-10548
▁peach	-10549
▁resol	-10550
▁toads	-10551
treated	-10552
▁Bachel	-10553
▁Better	-10554
▁Claire	-10555
▁Making	-10556
▁Orchid	-10557
▁adhere	-10558
▁ballet	-10559
▁boiled	-10560
▁candid	-10561
▁exting	-10562
▁fellow	-10563
▁fungus	-10564
▁kicker	-10565
▁robust	-10566
▁thirst	-10567
Creative	-10568
▁Outdoor	-10569
▁Yolanda	-10570
▁anyways	-10571
▁drawers	-10572
▁execute	-10573
▁keepers	-10574
▁livened	-10575
▁piecing	-10576
▁pizzazz	-10577
▁posters	-10578
▁silence	-10579
▁striped	-10580
▁theater	-10581
▁unscrew	-10582
▁Bachelor	-10583
▁Novalash	-10584
▁increase	-10585
▁inverted	-10586
▁kneeling	-10587
▁shingles	-10588
▁shoelace	-10589
▁shouting	-10590
▁shrunken	-10591
▁sidekick	-10592
▁situated	-10593
▁sizzling	-10594
▁skimming	-10595
▁skinless	-10596
▁skylight	-10597
▁sleeping	-10598
▁slinging	-10599
Rub	-10600
Saw	-10601
cks	-10602
ems	-10603
▁MP	-10604
▁Ms	-10605
▁Mu	-10606
▁Uh	-10607
heet	-10608
inks	-10609
page	-10610
yler	-10611
▁140	-10612
▁Mar	-10613
▁gag	-10614
▁rag	-10615
▁vat	-10616
Cause	-10617
Glass	-10618
akers	-10619
illag	-10620
image	-10621
umple	-10622
▁Care	-10623
▁Eric	-10624
▁Golf	-10625
▁More	-10626
▁Muay	-10627
▁Test	-10628
▁cric	-10629
▁duet	-10630
▁flub	-10631
▁gems	-10632
▁hack	-10633
▁hero	-10634
▁letâ	-10635
▁male	-10636
▁mock	-10637
▁none	-10638
▁shel	-10639
▁slab	-10640
▁slim	-10641
▁slur	-10642
▁smil	-10643
▁snip	-10644
▁stub	-10645
▁vent	-10646
▁Jyler	-10647
▁alone	-10648
▁bunny	-10649
▁burns	-10650
▁chunk	-10651
▁hairy	-10652
▁imple	-10653
▁links	-10654
▁prong	-10655
▁slack	-10656
▁socks	-10657
▁stove	-10658
▁swirl	-10659
▁ticks	-10660
Glasses	-10661
▁Marvel	-10662
▁boring	-10663
▁carpal	-10664
▁excuse	-10665
▁inward	-10666
▁radius	-10667
▁smiles	-10668
▁social	-10669
▁spider	-10670
▁tailsl	-10671
▁upward	-10672
▁Traders	-10673
▁Working	-10674
▁carving	-10675
▁cricket	-10676
▁crumple	-10677
▁exposed	-10678
▁reddish	-10679
▁seepage	-10680
according	-10681
lementary	-10682
▁Actually	-10683
▁Carolina	-10684
▁antiques	-10685
▁dictates	-10686
▁shelving	-10687
▁slipping	-10688
▁smartest	-10689
▁smoother	-10690
▁soothing	-10691
▁soreness	-10692
▁sorority	-10693
▁southern	-10694
▁sparkler	-10695
▁speakers	-10696
▁spectrum	-10697
▁speeding	-10698
▁spindles	-10699
▁&	-10700
▁17	-10701
▁Ha	-10702
Most	-10703
RAIL	-10704
Tell	-10705
Wash	-10706
eely	-10707
icos	-10708
ifth	-10709
into	-10710
neck	-10711
once	-10712
▁Had	-10713
▁His	-10714
▁Hot	-10715
▁Lay	-10716
▁Tem	-10717
▁hue	-10718
arely	-10719
dance	-10720
▁Bush	-10721
▁Food	-10722
▁Lino	-10723
▁Turn	-10724
▁Ulta	-10725
▁Wild	-10726
▁bail	-10727
▁fees	-10728
▁hunt	-10729
▁lino	-10730
▁silk	-10731
▁skis	-10732
▁tran	-10733
▁whoâ	-10734
orough	-10735
▁Jared	-10736
▁Neely	-10737
▁Stung	-10738
▁Super	-10739
▁burnt	-10740
▁clump	-10741
▁dries	-10742
▁fifth	-10743
▁flare	-10744
▁mache	-10745
▁pinto	-10746
▁slaps	-10747
cessful	-10748
itioner	-10749
ressure	-10750
▁Baking	-10751
▁Temple	-10752
▁Utopia	-10753
▁clumpy	-10754
▁contra	-10755
▁creamy	-10756
▁cutter	-10757
▁fricos	-10758
▁killer	-10759
▁loaded	-10760
▁rarely	-10761
▁snatch	-10762
▁socket	-10763
▁staker	-10764
▁usable	-10765
Pressure	-10766
▁answers	-10767
▁handles	-10768
▁inflate	-10769
▁lizards	-10770
▁remover	-10771
▁shatter	-10772
▁soaking	-10773
▁Buddhism	-10774
▁Diabetes	-10775
▁literacy	-10776
▁necklace	-10777
▁splatter	-10778
▁spraying	-10779
▁squeezes	-10780
▁stacking	-10781
▁stagnant	-10782
▁steaming	-10783
▁steepest	-10784
▁straddle	-10785
▁strategy	-10786
▁striking	-10787
▁striping	-10788
▁stronger	-10789
▁strongly	-10790
▁stubborn	-10791
▁stuffing	-10792
▁succinct	-10793
▁suggests	-10794
▁sunburst	-10795
▁sunlight	-10796
▁supplied	-10797
▁supplier	-10798
▁surfaces	-10799
ogs	-10800
▁DD	-10801
▁DR	-10802
nope	-10803
ogas	-10804
▁20%	-10805
▁Arm	-10806
▁Den	-10807
▁Red	-10808
▁civ	-10809
▁lob	-10810
Watch	-10811
While	-10812
arian	-10813
heads	-10814
▁Case	-10815
▁Deep	-10816
▁Dogs	-10817
▁Feel	-10818
▁Jill	-10819
▁Kiss	-10820
▁Less	-10821
▁Pain	-10822
▁Pink	-10823
▁bets	-10824
▁loss	-10825
▁moto	-10826
▁phon	-10827
inions	-10828
▁Makes	-10829
▁Never	-10830
▁Reach	-10831
▁arter	-10832
▁booth	-10833
▁bossy	-10834
▁cator	-10835
▁dough	-10836
▁oiler	-10837
▁refin	-10838
▁saves	-10839
▁shady	-10840
▁slash	-10841
▁warms	-10842
▁yogas	-10843
FTCHELP	-10844
▁Canada	-10845
▁Denial	-10846
▁broker	-10847
▁footer	-10848
▁glossy	-10849
▁joined	-10850
▁limits	-10851
▁office	-10852
▁preset	-10853
▁strive	-10854
▁tuning	-10855
▁verses	-10856
▁Hammock	-10857
▁betting	-10858
▁capital	-10859
▁captain	-10860
▁croquis	-10861
▁footage	-10862
▁granite	-10863
▁instill	-10864
▁lighten	-10865
▁opening	-10866
▁persons	-10867
▁stopper	-10868
▁strange	-10869
▁whoever	-10870
Copyright	-10871
▁Sicilian	-10872
▁Training	-10873
▁alcohols	-10874
▁arterial	-10875
▁counters	-10876
▁coworker	-10877
▁cracking	-10878
▁opinions	-10879
▁resupply	-10880
▁rollover	-10881
▁sparring	-10882
▁strictly	-10883
▁sweeping	-10884
▁swelling	-10885
▁swimmers	-10886
▁swimsuit	-10887
▁tactical	-10888
▁tailbone	-10889
▁tailored	-10890
▁teaspoon	-10891
▁tendency	-10892
▁terminal	-10893
▁textured	-10894
▁textures	-10895
▁thickest	-10896
▁thirteen	-10897
▁thorough	-10898
▁tingling	-10899
Is	-10900
▁2.	-10901
..."	-10902
Pool	-10903
tool	-10904
▁Bee	-10905
▁Bye	-10906
▁May	-10907
▁Oak	-10908
▁rip	-10909
▁rud	-10910
▁vet	-10911
Owner	-10912
inked	-10913
▁""..	-10914
▁Cell	-10915
▁Ping	-10916
▁Rock	-10917
▁Stay	-10918
▁Tell	-10919
▁cork	-10920
▁hits	-10921
▁mint	-10922
▁moss	-10923
▁rung	-10924
▁stat	-10925
▁wont	-10926
Either	-10927
Things	-10928
laughs	-10929
stress	-10930
▁couch	-10931
▁drips	-10932
▁elong	-10933
▁forms	-10934
▁fours	-10935
▁kicks	-10936
▁rated	-10937
▁rices	-10938
▁shell	-10939
▁stool	-10940
▁uncom	-10941
▁witch	-10942
▁Bikram	-10943
▁Buddha	-10944
▁Knight	-10945
▁beater	-10946
▁bodies	-10947
▁bumped	-10948
▁drawer	-10949
▁extent	-10950
▁hitter	-10951
▁loaves	-10952
▁oilier	-10953
▁rudder	-10954
▁squish	-10955
▁stated	-10956
▁stings	-10957
▁themed	-10958
▁venous	-10959
▁visits	-10960
▁Abraham	-10961
▁Russian	-10962
▁awfully	-10963
▁cleanse	-10964
▁clogged	-10965
▁coating	-10966
▁harness	-10967
▁infants	-10968
▁latches	-10969
▁ourself	-10970
▁outward	-10971
▁rooting	-10972
▁skating	-10973
▁swivels	-10974
▁trained	-10975
▁vanilla	-10976
▁Somewhat	-10977
▁boneless	-10978
▁costumes	-10979
▁drawings	-10980
▁dribbles	-10981
▁flexions	-10982
▁isolates	-10983
▁knocking	-10984
▁overview	-10985
▁sprinkle	-10986
▁torquing	-10987
▁trainers	-10988
▁trapping	-10989
▁trimmers	-10990
▁tripping	-10991
▁trusting	-10992
▁underarm	-10993
▁unevenly	-10994
▁unsalted	-10995
▁unstable	-10996
▁unwanted	-10997
▁upstream	-10998
▁valuable	-10999
▁28	-11000
▁4;	-11001
wash	-11002
▁pet	-11003
▁Matt	-11004
▁hadn	-11005
▁Stick	-11006
▁Store	-11007
▁crash	-11008
▁teams	-11009
▁Center	-11010
▁bridle	-11011
▁edible	-11012
▁recall	-11013
▁repack	-11014
▁Arizona	-11015
▁combine	-11016
▁pageant	-11017
▁plugged	-11018
▁precise	-11019
▁appraise	-11020
▁pivoting	-11021
▁velocity	-11022
▁vertical	-11023
▁visiting	-11024
▁visually	-11025
▁vitamins	-11026
▁wallowed	-11027
▁weddings	-11028
▁windmill	-11029
▁wondered	-11030
▁workouts	-11031
▁worrying	-11032
▁youthful	-11033
Absolutely	-11034
Decorative	-11035
Originally	-11036
Perception	-11037
ampionship	-11038
bohydrates	-11039
categories	-11040
confidence	-11041
iovascular	-11042
iropractic	-11043
omplishing	-11044
ormational	-11045
ridgerator	-11046
sequential	-11047
▁(""/"")."	-11048
▁Aesthetic	-11049
▁Americans	-11050
▁Argentina	-11051
▁Auditions	-11052
▁BILLHIMER	-11053
▁Backwards	-11054
▁Basically	-11055
▁Beautiful	-11056
▁Callister	-11057
▁Certainly	-11058
▁Chocolate	-11059
▁Christmas	-11060
▁Cleopatra	-11061
▁Cosmetics	-11062
▁DeFreitas	-11063
▁Depending	-11064
▁Excellent	-11065
▁Generally	-11066
▁Greenwich	-11067
▁Hampshire	-11068
▁Hamstring	-11069
▁Headstand	-11070
▁Heroscape	-11071
▁Intensive	-11072
▁Krynytzky	-11073
▁Lubriderm	-11074
▁Maddaloni	-11075
▁Milipitas	-11076
▁Motocross	-11077
▁Nationals	-11078
▁Neuchatel	-11079
▁Priscilla	-11080
▁Releasing	-11081
▁Rosengart	-11082
▁Sanctuary	-11083
▁Sauvignon	-11084
▁Schneider	-11085
▁Solitaire	-11086
▁Something	-11087
▁Spiderman	-11088
▁Squatting	-11089
▁Sukhasana	-11090
▁Technique	-11091
▁Tigridias	-11092
▁Traveling	-11093
▁Typically	-11094
▁Volcarren	-11095
▁Wasteland	-11096
▁Wikipedia	-11097
▁Wolverine	-11098
▁abductors	-11099
▁absorbing	-11100
▁academics	-11101
▁according	-11102
▁accordion	-11103
▁additives	-11104
▁adventure	-11105
▁affecting	-11106
▁affection	-11107
▁amplifier	-11108
▁answering	-11109
▁anywheres	-11110
▁appealing	-11111
▁astrology	-11112
▁attacking	-11113
▁attaining	-11114
▁authority	-11115
▁backbones	-11116
▁backfield	-11117
▁badminton	-11118
▁balancing	-11119
▁bartender	-11120
▁basements	-11121
▁bathrooms	-11122
▁behaviors	-11123
▁bilateral	-11124
▁biography	-11125
▁blemishes	-11126
▁bodysuits	-11127
▁bothering	-11128
▁brassiere	-11129
▁breakouts	-11130
▁breathing	-11131
▁brochette	-11132
▁butterfly	-11133
▁capacitor	-11134
▁capillary	-11135
▁captioned	-11136
▁carnivore	-11137
▁cartridge	-11138
▁casserole	-11139
▁celebrate	-11140
▁centuries	-11141
▁certified	-11142
▁chronicle	-11143
▁clearance	-11144
▁clockwise	-11145
▁commuting	-11146
▁comparing	-11147
▁competent	-11148
▁competing	-11149
▁component	-11150
▁composers	-11151
▁concludes	-11152
▁confidant	-11153
▁conflicts	-11154
▁congested	-11155
▁connector	-11156
▁contained	-11157
▁contraind	-11158
▁converted	-11159
▁copyright	-11160
▁correctly	-11161
▁corroding	-11162
▁countries	-11163
▁crumpling	-11164
▁cyanotype	-11165
▁dandasana	-11166
▁databases	-11167
▁dedicated	-11168
▁deepening	-11169
▁degreaser	-11170
▁delicates	-11171
▁delicious	-11172
▁delivered	-11173
▁dependent	-11174
▁deposited	-11175
▁designate	-11176
▁designers	-11177
▁detailing	-11178
▁detergent	-11179
▁developer	-11180
▁diagonals	-11181
▁dietitian	-11182
▁disappear	-11183
▁displayed	-11184
▁dissolved	-11185
▁distorted	-11186
▁disulfide	-11187
▁divisions	-11188
▁dragonfly	-11189
▁driftwood	-11190
▁educating	-11191
▁education	-11192
▁elevation	-11193
▁eliminate	-11194
▁emergency	-11195
▁emotional	-11196
▁employees	-11197
▁encaustic	-11198
▁encounter	-11199
▁endorsing	-11200
▁estrogens	-11201
▁etiquette	-11202
▁evaluates	-11203
▁exception	-11204
▁execution	-11205
▁exfoliate	-11206
▁expecting	-11207
▁explosion	-11208
▁extending	-11209
▁extremity	-11210
▁eyeshadow	-11211
▁filtering	-11212
▁flattened	-11213
▁flinching	-11214
▁flowering	-11215
▁follicles	-11216
▁formation	-11217
▁fragrance	-11218
▁freelance	-11219
▁frontside	-11220
▁furniture	-11221
▁gathering	-11222
▁genmaicha	-11223
▁gradually	-11224
▁grapevine	-11225
▁grenadine	-11226
▁hairspray	-11227
▁hamstring	-11228
▁handrails	-11229
▁headaches	-11230
▁headlight	-11231
▁heaviness	-11232
▁horseback	-11233
▁identical	-11234
▁illnesses	-11235
▁implement	-11236
▁improving	-11237
▁including	-11238
▁increased	-11239
▁indicator	-11240
▁infesting	-11241
▁infielder	-11242
▁inflation	-11243
▁initiated	-11244
▁insertion	-11245
▁insulated	-11246
▁insurance	-11247
▁interfere	-11248
▁intervals	-11249
▁isolation	-11250
▁isopropyl	-11251
▁itinerary	-11252
▁knowledge	-11253
▁laterally	-11254
▁lengthens	-11255
▁listening	-11256
▁logically	-11257
▁lubricant	-11258
▁magnified	-11259
▁magnifies	-11260
▁magnitude	-11261
▁manualism	-11262
▁margarine	-11263
▁massaging	-11264
▁miserable	-11265
▁mosquitos	-11266
▁motioning	-11267
▁motivated	-11268
▁mountains	-11269
▁nebulizer	-11270
▁negatives	-11271
▁neighbors	-11272
▁nematodes	-11273
▁northwest	-11274
▁nunchucks	-11275
▁obstacles	-11276
▁occasions	-11277
▁onslaught	-11278
▁operation	-11279
▁optically	-11280
▁originate	-11281
▁overcrowd	-11282
▁paintings	-11283
▁palpation	-11284
▁parachute	-11285
▁particles	-11286
▁pathogens	-11287
▁performed	-11288
▁performer	-11289
▁picadillo	-11290
▁pipetters	-11291
▁political	-11292
▁practical	-11293
▁predators	-11294
▁preground	-11295
▁presented	-11296
▁president	-11297
▁pressures	-11298
▁prevalent	-11299
▁primarily	-11300
▁processes	-11301
▁protrudes	-11302
▁published	-11303
▁pupilless	-11304
▁quadricep	-11305
▁quadruped	-11306
▁ragefully	-11307
▁referring	-11308
▁refinance	-11309
▁regarding	-11310
▁registers	-11311
▁relaxants	-11312
▁remembers	-11313
▁rendering	-11314
▁repainted	-11315
▁repairing	-11316
▁resembles	-11317
▁reservoir	-11318
▁resharpen	-11319
▁resisting	-11320
▁resolving	-11321
▁retention	-11322
▁reviewing	-11323
▁reweaving	-11324
▁sabotaged	-11325
▁salicylic	-11326
▁satellite	-11327
▁satisfied	-11328
▁scavenged	-11329
▁scratched	-11330
▁screaming	-11331
▁scrubbing	-11332
▁searching	-11333
▁selection	-11334
▁separated	-11335
▁seriously	-11336
▁seventeen	-11337
▁shielding	-11338
▁silicones	-11339
▁similarly	-11340
▁sixteenth	-11341
▁slightest	-11342
▁solitaire	-11343
▁someplace	-11344
▁spaghetti	-11345
▁sparklers	-11346
▁sparkling	-11347
▁specifics	-11348
▁spectator	-11349
▁spiraling	-11350
▁splashing	-11351
▁squeamish	-11352
▁squeegees	-11353
▁stainless	-11354
▁standards	-11355
▁stopwatch	-11356
▁streamers	-11357
▁stretches	-11358
▁stripping	-11359
▁strongest	-11360
▁subscribe	-11361
▁supported	-11362
▁tailslide	-11363
▁telegraph	-11364
▁tempering	-11365
▁templated	-11366
▁tenderize	-11367
▁tensioner	-11368
▁theraband	-11369
▁therefore	-11370
▁thumbnail	-11371
▁tightness	-11372
▁toothache	-11373
▁tornadoes	-11374
▁tortillas	-11375
▁touchdown	-11376
▁trainings	-11377
▁umbilical	-11378
▁umbrellas	-11379
▁underside	-11380
▁unhealthy	-11381
▁unloading	-11382
▁unpacking	-11383
▁unsightly	-11384
▁versatile	-11385
▁vertebrae	-11386
▁viscosity	-11387
▁visualize	-11388
▁whitening	-11389
▁winterize	-11390
▁withering	-11391
▁withstand	-11392
▁wondering	-11393
▁wrinkling	-11394
▁yellowish	-11395
▁youngster	-11396
Essentially	-11397
Furthermore	-11398
Interesting	-11399
upuncturist	-11400
▁Admissions	-11401
▁Australian	-11402
▁Chameleons	-11403
▁Chardonnay	-11404
▁Clearwater	-11405
▁Continuing	-11406
▁Dictionary	-11407
▁Elementary	-11408
▁Everything	-11409
▁Expression	-11410
▁Fahrenheit	-11411
▁Lightening	-11412
▁Madagascar	-11413
▁Meiczinger	-11414
▁Petersburg	-11415
▁Practicing	-11416
▁Richardson	-11417
▁Separating	-11418
▁Wilmington	-11419
▁abdominals	-11420
▁accurately	-11421
▁activities	-11422
▁adequately	-11423
▁advantages	-11424
▁alternator	-11425
▁altogether	-11426
▁antibodies	-11427
▁appearance	-11428
▁apprentice	-11429
▁architects	-11430
▁arpeggiate	-11431
▁artificial	-11432
▁assessable	-11433
▁assessment	-11434
▁asymmetric	-11435
▁atmosphere	-11436
▁attributed	-11437
▁automatics	-11438
▁automobile	-11439
▁automotive	-11440
▁backpacker	-11441
▁beforehand	-11442
▁behavioral	-11443
▁believable	-11444
▁bitterness	-11445
▁blackheads	-11446
▁bouldering	-11447
▁boundaries	-11448
▁brassiness	-11449
▁breathable	-11450
▁broomstick	-11451
▁buttonhole	-11452
▁caricature	-11453
▁clarifying	-11454
▁clothespin	-11455
▁coarseness	-11456
▁commitment	-11457
▁comparison	-11458
▁complaints	-11459
▁completion	-11460
▁components	-11461
▁compressor	-11462
▁conducting	-11463
▁connecting	-11464
▁connectors	-11465
▁considered	-11466
▁continuity	-11467
▁continuous	-11468
▁convenient	-11469
▁correcting	-11470
▁correction	-11471
▁crocheting	-11472
▁cumulative	-11473
▁customized	-11474
▁cyanotypes	-11475
▁dealership	-11476
▁decorating	-11477
▁decreasing	-11478
▁deficiency	-11479
▁department	-11480
▁dependency	-11481
▁depilatory	-11482
▁diminished	-11483
▁dimorphism	-11484
▁disability	-11485
▁discolored	-11486
▁discourage	-11487
▁discussing	-11488
▁disruptive	-11489
▁distracted	-11490
▁disturbing	-11491
▁durability	-11492
▁efficiency	-11493
▁electrical	-11494
▁elongating	-11495
▁embroidery	-11496
▁empathetic	-11497
▁enunciated	-11498
▁evacuating	-11499
▁exceptions	-11500
▁exercising	-11501
▁exfoliants	-11502
▁exfoliator	-11503
▁exhaustion	-11504
▁expression	-11505
▁externally	-11506
▁extraction	-11507
▁facilitate	-11508
▁fascinated	-11509
▁feathering	-11510
▁fertilizer	-11511
▁fiberglass	-11512
▁fingernail	-11513
▁fingertips	-11514
▁firegroove	-11515
▁flamboyant	-11516
▁flattering	-11517
▁formatting	-11518
▁generation	-11519
▁government	-11520
▁gymnastics	-11521
▁headlights	-11522
▁headstones	-11523
▁herbaceous	-11524
▁historical	-11525
▁homeowners	-11526
▁horrendous	-11527
▁hurricanes	-11528
▁hydrangeas	-11529
▁hydrometer	-11530
▁icebreaker	-11531
▁identifies	-11532
▁illustrate	-11533
▁imforative	-11534
▁impersonal	-11535
▁importance	-11536
▁impossible	-11537
▁inaccurate	-11538
▁incidences	-11539
▁increments	-11540
▁indicating	-11541
▁indication	-11542
▁infections	-11543
▁inflatable	-11544
▁inhibitors	-11545
▁initiating	-11546
▁initiation	-11547
▁intestines	-11548
▁intimidate	-11549
▁irritating	-11550
▁johngraden	-11551
▁lamination	-11552
▁landscapes	-11553
▁locksmiths	-11554
▁magnifying	-11555
▁management	-11556
▁metabolism	-11557
▁microphone	-11558
▁microscope	-11559
▁microwaves	-11560
▁motivating	-11561
▁motivation	-11562
▁mouthpiece	-11563
▁multimedia	-11564
▁navigating	-11565
▁navigation	-11566
▁networking	-11567
▁objectives	-11568
▁oftentimes	-11569
▁organizing	-11570
▁originally	-11571
▁paintbrush	-11572
▁pedestrian	-11573
▁perfection	-11574
▁perforated	-11575
▁performing	-11576
▁physically	-11577
▁pirouettes	-11578
▁popularity	-11579
▁population	-11580
▁positioned	-11581
▁potentials	-11582
▁practicing	-11583
▁precleaner	-11584
▁preferably	-11585
▁preference	-11586
▁preserving	-11587
▁pressuring	-11588
▁prevention	-11589
▁principles	-11590
▁processing	-11591
▁progressed	-11592
▁pronounced	-11593
▁prosciutto	-11594
▁protectant	-11595
▁protecting	-11596
▁publishing	-11597
▁purchasing	-11598
▁pursuading	-11599
▁reapplying	-11600
▁receptacle	-11601
▁recognized	-11602
▁recordings	-11603
▁recovering	-11604
▁recreation	-11605
▁rectangles	-11606
▁refreshing	-11607
▁relaxation	-11608
▁repeatedly	-11609
▁replicated	-11610
▁respectful	-11611
▁revelation	-11612
▁rotational	-11613
▁salutation	-11614
▁scheduling	-11615
▁scientific	-11616
▁separately	-11617
▁serpentine	-11618
▁shortboard	-11619
▁shouldered	-11620
▁silhouette	-11621
▁silverware	-11622
▁smoothness	-11623
▁specialize	-11624
▁stabilized	-11625
▁steadiness	-11626
▁stragglies	-11627
▁strategies	-11628
▁strengthen	-11629
▁substitute	-11630
▁summarizes	-11631
▁summertime	-11632
▁sunglasses	-11633
▁supporting	-11634
▁supposedly	-11635
▁surrounded	-11636
▁suspicious	-11637
▁terracotta	-11638
▁tightening	-11639
▁translator	-11640
▁transplant	-11641
▁triangular	-11642
▁turtleneck	-11643
▁underlying	-11644
▁unfamiliar	-11645
▁vegetarian	-11646
▁vegetation	-11647
▁vertically	-11648
▁veterinary	-11649
▁waterproof	-11650
▁whatsoever	-11651
▁widespread	-11652
▁yardsticks	-11653
anwhitewater	-11654
▁Association	-11655
▁CHRISTOPHER	-11656
▁Comfortable	-11657
▁Convertible	-11658
▁Expressions	-11659
▁Nutrolution	-11660
▁Refrigerate	-11661
▁Reservation	-11662
▁Technicians	-11663
▁accelerates	-11664
▁accessorize	-11665
▁accumulated	-11666
▁acquisition	-11667
▁advancement	-11668
▁advertising	-11669
▁alterations	-11670
▁alternating	-11671
▁appointment	-11672
▁assignments	-11673
▁backgrounds	-11674
▁beautifully	-11675
▁bloodstream	-11676
▁calculating	-11677
▁catorgorize	-11678
▁centerpiece	-11679
▁centimeters	-11680
▁circulation	-11681
▁circulatory	-11682
▁combustible	-11683
▁comfortably	-11684
▁complaining	-11685
▁compliments	-11686
▁composition	-11687
▁compressing	-11688
▁compromised	-11689
▁conditioner	-11690
▁connoisseur	-11691
▁consecutive	-11692
▁considering	-11693
▁constrictor	-11694
▁contentious	-11695
▁continually	-11696
▁controlling	-11697
▁convenience	-11698
▁coordinated	-11699
▁counteracts	-11700
▁destination	-11701
▁detrimental	-11702
▁differently	-11703
▁directional	-11704
▁discouraged	-11705
▁discoveries	-11706
▁discovering	-11707
▁distracting	-11708
▁electricity	-11709
▁electrified	-11710
▁electronics	-11711
▁eliminating	-11712
▁established	-11713
▁examination	-11714
▁exfoliating	-11715
▁exfoliation	-11716
▁experiences	-11717
▁fertilizing	-11718
▁fundamental	-11719
▁girlfriends	-11720
▁hairstylist	-11721
▁horseradish	-11722
▁identifying	-11723
▁imformative	-11724
▁impressions	-11725
▁improvisers	-11726
▁infestation	-11727
▁instruments	-11728
▁intelligent	-11729
▁interactive	-11730
▁interfacing	-11731
▁intimidated	-11732
▁intoxicants	-11733
▁introducing	-11734
▁intuitively	-11735
▁lengthening	-11736
▁maintaining	-11737
▁moisturizer	-11738
▁moisturizes	-11739
▁motorcycles	-11740
▁mountainous	-11741
▁nationality	-11742
▁negotiating	-11743
▁neutralizes	-11744
▁overheating	-11745
▁participate	-11746
▁penetration	-11747
▁performance	-11748
▁personalize	-11749
▁perspective	-11750
▁perssuasive	-11751
▁phosphorous	-11752
▁physioballs	-11753
▁possibility	-11754
▁potentially	-11755
▁practically	-11756
▁predictable	-11757
▁preferences	-11758
▁printmaking	-11759
▁probability	-11760
▁problematic	-11761
▁productions	-11762
▁recognition	-11763
▁referencing	-11764
▁refinishing	-11765
▁replacement	-11766
▁reproducing	-11767
▁respiratory	-11768
▁restriction	-11769
▁screwdriver	-11770
▁specializes	-11771
▁splattering	-11772
▁sponsorship	-11773
▁spreadsheet	-11774
▁stimulating	-11775
▁stimulation	-11776
▁suggestible	-11777
▁technically	-11778
▁temporarily	-11779
▁terminology	-11780
▁territories	-11781
▁theoretical	-11782
▁thicknesses	-11783
▁transaction	-11784
▁underground	-11785
▁unweighting	-11786
▁vermiculite	-11787
▁workstation	-11788
INDISCERNIBLE	-11789
Unfortunately	-11790
▁Aesthetician	-11791
▁Butterscotch	-11792
▁Championship	-11793
▁Chiropractic	-11794
▁Motorcyclist	-11795
▁Occasionally	-11796
▁Practitioner	-11797
▁Rectractable	-11798
▁additionally	-11799
▁anticipating	-11800
▁antioxidants	-11801
▁associations	-11802
▁biomechanics	-11803
▁borosilicate	-11804
▁calligrapher	-11805
▁cheerleading	-11806
▁civilization	-11807
▁coffeemakers	-11808
▁collectibles	-11809
▁communicator	-11810
▁consistently	-11811
▁constricting	-11812
▁contemporary	-11813
▁coordination	-11814
▁differential	-11815
▁discongruity	-11816
▁disconnected	-11817
▁distractions	-11818
▁distributors	-11819
▁dramatically	-11820
▁expertvillag	-11821
▁extinguisher	-11822
▁fingerprints	-11823
▁geographical	-11824
▁hindquarters	-11825
▁incorporated	-11826
▁individually	-11827
▁inflammation	-11828
▁installation	-11829
▁interception	-11830
▁interference	-11831
▁interrupting	-11832
▁intimidating	-11833
▁macrobiotics	-11834
▁mathematical	-11835
▁middleweight	-11836
▁misalignment	-11837
▁monofilament	-11838
▁motivational	-11839
▁motorcycling	-11840
▁neighborhood	-11841
▁overpowering	-11842
▁performances	-11843
▁periodically	-11844
▁phonetically	-11845
▁prescription	-11846
▁regenerative	-11847
▁reinstalling	-11848
▁rejuvenating	-11849
▁repetitively	-11850
▁reproduction	-11851
▁shadowboxing	-11852
▁slenderizing	-11853
▁subscription	-11854
▁temperatures	-11855
▁tranquilizer	-11856
▁tremendously	-11857
▁unsuccessful	-11858
▁vanveenbulbs	-11859
▁abnormalities	-11860
▁accessibility	-11861
▁accomplishing	-11862
▁acupuncturist	-11863
▁aesthetically	-11864
▁affordability	-11865
▁approximately	-11866
▁automatically	-11867
▁carbohydrates	-11868
▁choreographer	-11869
▁circumference	-11870
▁circumstances	-11871
▁communicating	-11872
▁compassionate	-11873
▁competitively	-11874
▁concentrating	-11875
▁configuration	-11876
▁consideration	-11877
▁determination	-11878
▁distinguished	-11879
▁entertainment	-11880
▁environmental	-11881
▁fingerpicking	-11882
▁improvisation	-11883
▁independently	-11884
▁interpersonal	-11885
▁intrinsically	-11886
▁introspective	-11887
▁manufacturers	-11888
▁nonirritating	-11889
▁precautionary	-11890
▁preservatives	-11891
▁psychological	-11892
▁psychologists	-11893
▁qualification	-11894
▁reflexologist	-11895
▁refridgerator	-11896
▁stabilization	-11897
▁statistically	-11898
▁straightening	-11899
▁thermographic	-11900
▁uncomfortable	-11901
▁undergraduate	-11902
▁understanding	-11903
▁unfortunately	-11904
▁yogasanctuary	-11905
homerenovations	-11906
▁Immunoglobulin	-11907
▁cardiovascular	-11908
▁	-11909
e	-11910
t	-11911
o	-11912
a	-11913
i	-11914
n	-11915
s	-11916
r	-11917
h	-11918
l	-11919
u	-11920
d	-11921
g	-11922
y	-11923
c	-11924
w	-11925
m	-11926
f	-11927
p	-11928
b	-11929
"	-11930
.	-11931
,	-11932
k	-11933
'	-11934
v	-11935
I	-11936
T	-11937
S	-11938
A	-11939
j	-11940
x	-11941
W	-11942
Y	-11943
N	-11944
O	-11945
q	-11946
B	-11947
-	-11948
z	-11949
H	-11950
M	-11951
?	-11952
C	-11953
L	-11954
D	-11955
F	-11956
G	-11957
R	-11958
P	-11959
E	-11960
1	-11961
J	-11962
;	-11963
0	-11964
K	-11965
2	-11966
5	-11967
3	-11968
U	-11969
4	-11970
8	-11971
	-11972
â	-11973
:	-11974
V	-11975
	-11976
!	-11977
/	-11978
6	-11979
7	-11980
9	-11981
)	-11982
X	-11983
(	-11984
$	-11985
%	-11986
Q	-11987
Z	-11988
[	-11989
]	-11990
&	-11991
	-11992
	-11993
Â	-11994
⁄	-11995
